[PAD]	0
[UNK]	0
[BOS]	0
[EOS]	0
[SEP]	0
[MASK]	0
▁t	-0
▁a	-1
he	-2
in	-3
re	-4
▁the	-5
on	-6
er	-7
▁s	-8
▁w	-9
at	-10
▁o	-11
en	-12
▁c	-13
it	-14
is	-15
an	-16
or	-17
▁b	-18
es	-19
ed	-20
▁f	-21
ing	-22
▁p	-23
ou	-24
▁an	-25
al	-26
▁to	-27
ar	-28
▁m	-29
▁in	-30
▁of	-31
▁d	-32
▁h	-33
as	-34
ic	-35
▁and	-36
▁th	-37
le	-38
om	-39
ion	-40
ll	-41
ent	-42
▁n	-43
▁T	-44
▁l	-45
▁re	-46
st	-47
ve	-48
▁e	-49
ly	-50
▁be	-51
ro	-52
▁g	-53
id	-54
▁I	-55
ut	-56
ac	-57
ot	-58
▁S	-59
▁A	-60
▁that	-61
▁on	-62
ay	-63
▁is	-64
im	-65
et	-66
am	-67
ad	-68
ow	-69
ig	-70
se	-71
▁for	-72
▁C	-73
ver	-74
ur	-75
ct	-76
ld	-77
▁u	-78
▁st	-79
▁y	-80
▁M	-81
▁it	-82
▁he	-83
ir	-84
ation	-85
ith	-86
▁wh	-87
▁B	-88
ce	-89
ter	-90
▁The	-91
▁we	-92
ol	-93
il	-94
▁with	-95
▁as	-96
ch	-97
▁P	-98
ill	-99
nd	-100
▁W	-101
▁was	-102
▁you	-103
ers	-104
ke	-105
▁H	-106
▁con	-107
▁de	-108
▁r	-109
if	-110
her	-111
▁D	-112
ate	-113
▁at	-114
ag	-115
▁R	-116
▁ha	-117
▁se	-118
▁F	-119
ore	-120
▁1	-121
ul	-122
▁pro	-123
pp	-124
ment	-125
ri	-126
▁are	-127
est	-128
us	-129
ist	-130
▁com	-131
and	-132
▁2	-133
ain	-134
op	-135
▁(	-136
▁N	-137
igh	-138
rom	-139
ort	-140
od	-141
▁ne	-142
▁ex	-143
um	-144
un	-145
▁G	-146
res	-147
▁“	-148
ab	-149
▁not	-150
▁v	-151
▁L	-152
▁have	-153
ess	-154
em	-155
ould	-156
ity	-157
▁or	-158
os	-159
th	-160
▁by	-161
ant	-162
ive	-163
▁from	-164
▁al	-165
el	-166
▁E	-167
oc	-168
art	-169
▁su	-170
nt	-171
▁this	-172
▁sh	-173
▁O	-174
qu	-175
ight	-176
pe	-177
ust	-178
▁"	-179
▁le	-180
ies	-181
▁J	-182
end	-183
▁sa	-184
▁ch	-185
out	-186
▁ab	-187
all	-188
ie	-189
ack	-190
red	-191
▁has	-192
ally	-193
▁pl	-194
▁go	-195
ard	-196
ome	-197
iv	-198
▁his	-199
gh	-200
ost	-201
ap	-202
ear	-203
▁tr	-204
our	-205
ast	-206
▁j	-207
ak	-208
ud	-209
▁U	-210
▁do	-211
▁they	-212
▁but	-213
▁20	-214
▁wor	-215
rou	-216
▁can	-217
▁said	-218
▁whe	-219
ge	-220
▁will	-221
ich	-222
▁k	-223
▁all	-224
ok	-225
▁who	-226
ide	-227
▁int	-228
ame	-229
ans	-230
ial	-231
ther	-232
▁out	-233
▁their	-234
ff	-235
pl	-236
▁Th	-237
ong	-238
ect	-239
ice	-240
▁In	-241
ure	-242
pt	-243
▁more	-244
one	-245
age	-246
ions	-247
▁me	-248
act	-249
ike	-250
▁up	-251
ous	-252
▁ad	-253
ine	-254
▁K	-255
▁about	-256
ated	-257
ra	-258
▁one	-259
ber	-260
og	-261
▁us	-262
▁so	-263
▁were	-264
ep	-265
ime	-266
▁St	-267
ia	-268
are	-269
cc	-270
▁had	-271
ub	-272
▁would	-273
▁im	-274
▁cl	-275
▁which	-276
ind	-277
ue	-278
ake	-279
iz	-280
▁cont	-281
▁ag	-282
very	-283
▁te	-284
▁off	-285
▁comp	-286
▁un	-287
▁been	-288
▁en	-289
so	-290
per	-291
ign	-292
au	-293
ary	-294
ew	-295
▁year	-296
ace	-297
ip	-298
00	-299
ere	-300
▁like	-301
ven	-302
▁inc	-303
ook	-304
▁pe	-305
▁man	-306
ays	-307
▁It	-308
ry	-309
ose	-310
▁res	-311
▁per	-312
ite	-313
able	-314
ass	-315
▁sp	-316
ord	-317
ire	-318
▁other	-319
▁Y	-320
mer	-321
ile	-322
▁some	-323
ib	-324
▁201	-325
ence	-326
ople	-327
▁over	-328
ks	-329
ical	-330
▁there	-331
ult	-332
ress	-333
ations	-334
▁dis	-335
▁Ch	-336
▁new	-337
int	-338
own	-339
▁than	-340
▁ar	-341
▁also	-342
ount	-343
ough	-344
ance	-345
▁bec	-346
▁them	-347
ru	-348
port	-349
▁your	-350
▁app	-351
▁part	-352
▁what	-353
ail	-354
▁when	-355
ree	-356
▁people	-357
▁sc	-358
orm	-359
fter	-360
ond	-361
▁V	-362
ase	-363
av	-364
▁qu	-365
▁3	-366
▁just	-367
▁any	-368
▁its	-369
ach	-370
▁kn	-371
▁time	-372
▁my	-373
ens	-374
▁her	-375
▁if	-376
lic	-377
▁rec	-378
.”	-379
▁get	-380
reat	-381
▁He	-382
▁-	-383
▁into	-384
vel	-385
▁tw	-386
ian	-387
▁work	-388
irst	-389
▁no	-390
ound	-391
ction	-392
du	-393
ory	-394
ings	-395
▁our	-396
ick	-397
ition	-398
ob	-399
ors	-400
ident	-401
▁pre	-402
▁play	-403
ang	-404
▁co	-405
amp	-406
ink	-407
ause	-408
wn	-409
ade	-410
hing	-411
ates	-412
ark	-413
itt	-414
▁ro	-415
▁she	-416
▁pol	-417
ove	-418
vers	-419
▁after	-420
▁19	-421
▁how	-422
ne	-423
▁could	-424
▁first	-425
,”	-426
▁acc	-427
nder	-428
ious	-429
ons	-430
▁him	-431
aw	-432
ild	-433
▁po	-434
▁fe	-435
▁att	-436
▁We	-437
▁only	-438
ict	-439
▁pr	-440
hed	-441
ov	-442
▁But	-443
▁two	-444
ish	-445
form	-446
▁act	-447
▁comm	-448
▁spe	-449
ft	-450
erv	-451
▁bl	-452
we	-453
."	-454
▁bet	-455
▁Wh	-456
▁dec	-457
ning	-458
▁back	-459
▁This	-460
▁4	-461
ces	-462
▁most	-463
te	-464
▁–	-465
▁And	-466
ck	-467
ood	-468
▁am	-469
iff	-470
▁did	-471
rough	-472
oy	-473
round	-474
▁—	-475
▁again	-476
ater	-477
ual	-478
day	-479
▁under	-480
▁des	-481
ise	-482
▁want	-483
▁$	-484
rit	-485
sel	-486
▁cons	-487
ull	-488
▁because	-489
▁now	-490
lud	-491
,"	-492
ublic	-493
▁years	-494
ec	-495
ents	-496
tern	-497
▁need	-498
▁even	-499
man	-500
▁know	-501
▁5	-502
iss	-503
▁inv	-504
▁ind	-505
▁add	-506
▁Un	-507
..	-508
▁see	-509
▁As	-510
ments	-511
old	-512
ced	-513
▁sec	-514
fore	-515
▁every	-516
The	-517
uch	-518
urn	-519
▁make	-520
▁supp	-521
ock	-522
▁these	-523
▁em	-524
pect	-525
▁Tr	-526
oll	-527
▁where	-528
ject	-529
▁[	-530
ational	-531
xt	-532
vern	-533
▁don	-534
▁look	-535
▁bu	-536
ating	-537
▁ev	-538
ump	-539
▁right	-540
▁being	-541
ng	-542
oss	-543
▁way	-544
▁rem	-545
iew	-546
▁may	-547
ily	-548
▁diff	-549
▁then	-550
lect	-551
▁many	-552
▁call	-553
ason	-554
ont	-555
row	-556
▁def	-557
▁rel	-558
▁think	-559
ased	-560
).	-561
▁includ	-562
aking	-563
▁imp	-564
ited	-565
▁reg	-566
▁fl	-567
ied	-568
meric	-569
▁through	-570
▁sy	-571
ath	-572
▁say	-573
rib	-574
▁should	-575
▁pres	-576
uring	-577
▁last	-578
les	-579
other	-580
▁those	-581
▁very	-582
ific	-583
▁state	-584
ower	-585
ative	-586
ities	-587
▁br	-588
▁much	-589
hen	-590
▁show	-591
▁Re	-592
arg	-593
ell	-594
ty	-595
▁New	-596
▁well	-597
▁count	-598
arly	-599
oth	-600
▁ph	-601
▁does	-602
▁bel	-603
▁ass	-604
▁down	-605
ting	-606
▁end	-607
als	-608
▁own	-609
und	-610
▁use	-611
▁Americ	-612
ics	-613
▁200	-614
ange	-615
ince	-616
omet	-617
ters	-618
▁before	-619
▁long	-620
ward	-621
gr	-622
▁mon	-623
▁govern	-624
▁report	-625
▁ke	-626
ible	-627
ts	-628
▁start	-629
ues	-630
up	-631
▁team	-632
▁made	-633
▁6	-634
ble	-635
▁fin	-636
ife	-637
olog	-638
erson	-639
ren	-640
▁such	-641
ms	-642
ener	-643
ix	-644
oun	-645
),	-646
▁sm	-647
▁going	-648
com	-649
▁good	-650
▁Al	-651
ility	-652
▁You	-653
▁stud	-654
ually	-655
ek	-656
▁world	-657
▁ac	-658
tain	-659
▁hel	-660
ful	-661
ists	-662
▁game	-663
▁eff	-664
ys	-665
000	-666
its	-667
ork	-668
▁against	-669
...	-670
▁sur	-671
▁sub	-672
▁point	-673
▁set	-674
▁ent	-675
gan	-676
stem	-677
▁gu	-678
▁prov	-679
ism	-680
▁still	-681
▁while	-682
▁If	-683
▁min	-684
ars	-685
roup	-686
illion	-687
ier	-688
▁lead	-689
alk	-690
cy	-691
ween	-692
▁help	-693
imes	-694
▁ob	-695
▁gr	-696
ax	-697
▁col	-698
▁says	-699
cess	-700
▁inst	-701
ank	-702
▁sim	-703
▁take	-704
▁produ	-705
io	-706
▁inter	-707
self	-708
▁str	-709
▁conf	-710
▁differe	-711
ah	-712
ures	-713
ool	-714
▁though	-715
arch	-716
ution	-717
▁between	-718
▁offic	-719
▁op	-720
▁same	-721
▁For	-722
uss	-723
ollow	-724
hes	-725
▁cr	-726
▁sign	-727
ever	-728
▁disc	-729
▁ed	-730
land	-731
air	-732
▁high	-733
▁De	-734
led	-735
read	-736
way	-737
▁num	-738
hip	-739
▁law	-740
▁An	-741
▁government	-742
gg	-743
▁Ar	-744
ner	-745
ros	-746
0.	-747
▁somet	-748
▁They	-749
atch	-750
▁ref	-751
▁ter	-752
any	-753
ames	-754
velop	-755
▁Sh	-756
cent	-757
▁Is	-758
▁Le	-759
▁ins	-760
▁run	-761
▁ser	-762
▁mem	-763
▁here	-764
▁Com	-765
▁7	-766
▁three	-767
▁around	-768
ather	-769
▁exp	-770
▁trans	-771
ave	-772
▁found	-773
ives	-774
▁system	-775
▁med	-776
▁used	-777
▁mod	-778
▁real	-779
ouse	-780
▁Trump	-781
ved	-782
cept	-783
,000	-784
az	-785
ving	-786
▁Se	-787
ci	-788
oot	-789
▁really	-790
con	-791
▁support	-792
▁group	-793
▁cour	-794
▁That	-795
ets	-796
▁public	-797
▁ret	-798
ins	-799
cer	-800
ale	-801
▁Cl	-802
▁hand	-803
pr	-804
ph	-805
▁spec	-806
▁exper	-807
▁great	-808
▁sl	-809
▁10	-810
▁car	-811
▁ext	-812
▁happ	-813
▁There	-814
▁fam	-815
ying	-816
ense	-817
irect	-818
.[	-819
▁fact	-820
▁fr	-821
▁cur	-822
▁both	-823
ular	-824
▁day	-825
ton	-826
▁find	-827
alth	-828
▁wom	-829
▁cap	-830
▁8	-831
▁read	-832
min	-833
ices	-834
▁det	-835
ered	-836
▁rep	-837
oh	-838
uth	-839
▁during	-840
▁big	-841
▁So	-842
▁'	-843
ines	-844
▁person	-845
▁serv	-846
▁month	-847
▁develop	-848
ision	-849
▁cre	-850
▁iss	-851
akes	-852
▁follow	-853
▁since	-854
ically	-855
▁told	-856
aj	-857
▁cent	-858
▁On	-859
ivers	-860
ared	-861
the	-862
▁few	-863
med	-864
▁week	-865
▁9	-866
ording	-867
▁war	-868
orth	-869
ages	-870
▁Ad	-871
▁polit	-872
ash	-873
ef	-874
ves	-875
▁expl	-876
▁leg	-877
▁belie	-878
▁too	-879
▁lot	-880
▁gener	-881
▁Fr	-882
get	-883
▁fil	-884
ric	-885
bers	-886
▁opp	-887
▁prot	-888
ata	-889
anc	-890
▁contin	-891
iet	-892
ized	-893
rent	-894
der	-895
▁requ	-896
ex	-897
ness	-898
▁cle	-899
▁At	-900
▁put	-901
chool	-902
▁inf	-903
ention	-904
▁different	-905
▁something	-906
▁another	-907
▁resp	-908
▁soc	-909
▁cor	-910
▁How	-911
▁Pro	-912
▁‘	-913
▁art	-914
att	-915
▁loc	-916
ute	-917
▁power	-918
▁met	-919
▁invest	-920
ience	-921
ik	-922
▁pass	-923
ody	-924
uc	-925
▁head	-926
arl	-927
▁life	-928
ned	-929
thing	-930
▁rele	-931
ross	-932
▁che	-933
▁plan	-934
▁far	-935
▁things	-936
▁ask	-937
▁commun	-938
▁bo	-939
view	-940
▁camp	-941
▁vot	-942
▁Rep	-943
▁dep	-944
ize	-945
▁char	-946
▁poss	-947
erest	-948
ants	-949
▁might	-950
▁each	-951
ret	-952
▁second	-953
▁.	-954
▁child	-955
iness	-956
▁US	-957
▁dem	-958
ient	-959
▁never	-960
▁mark	-961
▁adv	-962
▁bus	-963
▁best	-964
▁next	-965
▁allow	-966
▁quest	-967
▁got	-968
ital	-969
▁come	-970
▁open	-971
son	-972
▁seem	-973
ield	-974
▁post	-975
▁feel	-976
ittle	-977
▁Bl	-978
▁pri	-979
ee	-980
ug	-981
ple	-982
cl	-983
rat	-984
▁percent	-985
▁wr	-986
gram	-987
▁direct	-988
▁home	-989
▁result	-990
ten	-991
▁incre	-992
▁dist	-993
osed	-994
conom	-995
ired	-996
▁Ind	-997
orn	-998
▁comple	-999
ately	-1000
▁import	-1001
▁contro	-1002
▁hard	-1003
▁inform	-1004
▁without	-1005
▁place	-1006
less	-1007
▁hum	-1008
20	-1009
▁care	-1010
▁including	-1011
▁av	-1012
▁proble	-1013
▁ide	-1014
▁million	-1015
chn	-1016
▁country	-1017
▁She	-1018
▁build	-1019
▁Z	-1020
ama	-1021
riend	-1022
▁number	-1023
▁top	-1024
▁stand	-1025
aim	-1026
▁mov	-1027
▁let	-1028
We	-1029
oney	-1030
▁partic	-1031
ably	-1032
▁recent	-1033
co	-1034
gy	-1035
▁el	-1036
ished	-1037
ral	-1038
▁gl	-1039
▁better	-1040
ways	-1041
▁tri	-1042
▁four	-1043
ration	-1044
▁Q	-1045
▁--	-1046
▁less	-1047
▁beh	-1048
▁interest	-1049
▁appro	-1050
▁little	-1051
▁called	-1052
ract	-1053
▁turn	-1054
▁season	-1055
▁When	-1056
line	-1057
ised	-1058
ency	-1059
▁pop	-1060
▁mil	-1061
▁left	-1062
▁case	-1063
▁attack	-1064
▁bro	-1065
▁dr	-1066
▁Be	-1067
▁ann	-1068
ina	-1069
▁rest	-1070
ajor	-1071
leg	-1072
▁keep	-1073
▁fun	-1074
ode	-1075
▁didn	-1076
ling	-1077
▁move	-1078
app	-1079
▁main	-1080
ider	-1081
▁Ph	-1082
▁using	-1083
▁full	-1084
▁test	-1085
uro	-1086
ted	-1087
▁effect	-1088
▁program	-1089
▁econom	-1090
inal	-1091
▁prev	-1092
▁val	-1093
▁What	-1094
ature	-1095
▁pay	-1096
ger	-1097
▁news	-1098
me	-1099
▁police	-1100
▁i	-1101
▁data	-1102
▁level	-1103
▁form	-1104
arge	-1105
▁pos	-1106
▁American	-1107
be	-1108
▁small	-1109
▁Ob	-1110
iving	-1111
▁school	-1112
ready	-1113
ains	-1114
to	-1115
ined	-1116
uck	-1117
▁win	-1118
▁list	-1119
▁process	-1120
▁Go	-1121
▁rece	-1122
ided	-1123
▁hist	-1124
ians	-1125
ology	-1126
▁eas	-1127
nce	-1128
▁dri	-1129
ploy	-1130
ruct	-1131
It	-1132
▁change	-1133
▁prom	-1134
▁United	-1135
ird	-1136
reen	-1137
▁women	-1138
▁ty	-1139
▁All	-1140
used	-1141
▁current	-1142
▁president	-1143
rap	-1144
▁already	-1145
▁Can	-1146
▁company	-1147
▁Chr	-1148
ohn	-1149
iver	-1150
▁unt	-1151
▁job	-1152
▁why	-1153
▁mat	-1154
▁expect	-1155
▁talk	-1156
▁bre	-1157
▁official	-1158
▁thing	-1159
▁later	-1160
▁money	-1161
▁class	-1162
▁18	-1163
▁Sp	-1164
wit	-1165
▁major	-1166
▁always	-1167
▁sol	-1168
▁book	-1169
▁business	-1170
▁organ	-1171
▁chang	-1172
ases	-1173
-1	-1174
▁project	-1175
ead	-1176
▁information	-1177
▁techn	-1178
▁story	-1179
▁able	-1180
aign	-1181
▁design	-1182
stand	-1183
▁claim	-1184
▁rese	-1185
iversity	-1186
▁past	-1187
ertain	-1188
▁=	-1189
▁free	-1190
▁12	-1191
▁Mr	-1192
ards	-1193
aff	-1194
▁prof	-1195
iven	-1196
▁away	-1197
▁vis	-1198
ample	-1199
lection	-1200
ption	-1201
▁Sc	-1202
ior	-1203
--	-1204
urity	-1205
urs	-1206
▁happen	-1207
▁must	-1208
ural	-1209
▁health	-1210
here	-1211
▁sk	-1212
tt	-1213
▁One	-1214
▁city	-1215
ured	-1216
▁To	-1217
▁var	-1218
▁Pl	-1219
▁important	-1220
acy	-1221
▁oper	-1222
▁Mar	-1223
uthor	-1224
▁pat	-1225
▁est	-1226
ury	-1227
ission	-1228
▁doesn	-1229
▁15	-1230
▁kill	-1231
outh	-1232
▁John	-1233
▁least	-1234
ending	-1235
▁old	-1236
ained	-1237
▁enough	-1238
▁Pres	-1239
▁view	-1240
els	-1241
▁cost	-1242
▁tell	-1243
▁hop	-1244
ney	-1245
ides	-1246
▁grow	-1247
▁Con	-1248
▁edit	-1249
ccess	-1250
▁aff	-1251
▁const	-1252
▁stre	-1253
▁days	-1254
side	-1255
▁came	-1256
▁Or	-1257
▁/	-1258
▁kind	-1259
▁men	-1260
▁Republic	-1261
ott	-1262
▁campaign	-1263
ern	-1264
ron	-1265
▁friend	-1266
▁sit	-1267
ley	-1268
▁making	-1269
▁large	-1270
ox	-1271
oad	-1272
▁family	-1273
▁mar	-1274
▁polic	-1275
sc	-1276
ional	-1277
▁until	-1278
▁Comm	-1279
pped	-1280
▁0	-1281
▁elect	-1282
▁record	-1283
arent	-1284
ising	-1285
ror	-1286
ived	-1287
▁political	-1288
▁deal	-1289
ator	-1290
▁vide	-1291
Th	-1292
▁tax	-1293
alf	-1294
▁fore	-1295
ality	-1296
eral	-1297
augh	-1298
ush	-1299
ries	-1300
▁Dem	-1301
aining	-1302
▁May	-1303
▁line	-1304
ister	-1305
▁working	-1306
ocrat	-1307
ified	-1308
ued	-1309
▁deb	-1310
ering	-1311
▁No	-1312
▁Mc	-1313
▁mean	-1314
▁intern	-1315
aps	-1316
▁11	-1317
ane	-1318
▁took	-1319
▁air	-1320
▁ve	-1321
▁fund	-1322
bs	-1323
work	-1324
▁actually	-1325
▁es	-1326
▁become	-1327
▁Russ	-1328
▁$1	-1329
▁Euro	-1330
▁often	-1331
ember	-1332
▁del	-1333
iol	-1334
year	-1335
ony	-1336
by	-1337
ware	-1338
oint	-1339
most	-1340
▁give	-1341
▁former	-1342
▁word	-1343
ization	-1344
▁Sy	-1345
▁return	-1346
▁according	-1347
eng	-1348
▁ever	-1349
▁won	-1350
iber	-1351
▁President	-1352
▁bas	-1353
▁human	-1354
▁dev	-1355
raft	-1356
▁charac	-1357
▁perform	-1358
aring	-1359
ison	-1360
▁With	-1361
▁order	-1362
ann	-1363
wh	-1364
▁Br	-1365
▁199	-1366
icle	-1367
ither	-1368
▁times	-1369
▁games	-1370
gin	-1371
▁sever	-1372
uture	-1373
idd	-1374
▁bit	-1375
▁Am	-1376
▁sing	-1377
▁market	-1378
▁fac	-1379
iqu	-1380
▁today	-1381
▁name	-1382
▁la	-1383
▁early	-1384
▁Col	-1385
▁lear	-1386
▁doing	-1387
ched	-1388
▁Te	-1389
▁ra	-1390
▁seen	-1391
▁having	-1392
▁crit	-1393
▁social	-1394
▁players	-1395
aken	-1396
▁night	-1397
▁appear	-1398
for	-1399
sh	-1400
▁media	-1401
iam	-1402
▁event	-1403
▁pot	-1404
idence	-1405
▁meet	-1406
▁whether	-1407
▁prop	-1408
rop	-1409
▁sure	-1410
▁children	-1411
▁members	-1412
▁press	-1413
▁milit	-1414
▁several	-1415
▁five	-1416
▁York	-1417
artment	-1418
ER	-1419
ium	-1420
▁equ	-1421
▁#	-1422
▁likely	-1423
▁control	-1424
▁went	-1425
▁example	-1426
▁occ	-1427
▁Europe	-1428
▁After	-1429
▁question	-1430
ories	-1431
▁young	-1432
iously	-1433
▁Obama	-1434
▁certain	-1435
let	-1436
▁side	-1437
▁(1	-1438
▁success	-1439
▁vers	-1440
▁Not	-1441
▁,	-1442
ortun	-1443
ene	-1444
mber	-1445
▁States	-1446
br	-1447
▁eng	-1448
ots	-1449
▁done	-1450
ential	-1451
▁short	-1452
ball	-1453
▁ant	-1454
▁hour	-1455
▁arg	-1456
ially	-1457
ands	-1458
ended	-1459
▁within	-1460
▁desc	-1461
▁months	-1462
▁invol	-1463
lf	-1464
ulation	-1465
vert	-1466
enn	-1467
ats	-1468
▁along	-1469
itive	-1470
ubl	-1471
iting	-1472
▁]	-1473
▁Co	-1474
▁sex	-1475
ague	-1476
▁Ex	-1477
rew	-1478
▁course	-1479
ivid	-1480
▁among	-1481
imate	-1482
empt	-1483
urch	-1484
50	-1485
▁water	-1486
▁activ	-1487
▁fight	-1488
▁means	-1489
ggest	-1490
uff	-1491
▁future	-1492
▁cho	-1493
▁State	-1494
une	-1495
nect	-1496
▁problem	-1497
oci	-1498
▁once	-1499
ster	-1500
▁priv	-1501
▁thought	-1502
▁2016	-1503
▁author	-1504
▁Im	-1505
▁possible	-1506
▁across	-1507
▁writ	-1508
▁investig	-1509
▁local	-1510
▁understand	-1511
▁reason	-1512
▁concer	-1513
▁However	-1514
inc	-1515
▁avail	-1516
▁yet	-1517
▁known	-1518
ones	-1519
▁suggest	-1520
ald	-1521
▁viol	-1522
▁hold	-1523
▁non	-1524
ourn	-1525
▁fail	-1526
▁asked	-1527
▁product	-1528
▁makes	-1529
▁protect	-1530
▁Christ	-1531
not	-1532
verage	-1533
▁believe	-1534
▁Pol	-1535
▁orig	-1536
▁reported	-1537
book	-1538
ler	-1539
gress	-1540
arm	-1541
back	-1542
▁House	-1543
aged	-1544
▁community	-1545
▁strong	-1546
▁mus	-1547
▁Min	-1548
por	-1549
ensive	-1550
▁given	-1551
▁video	-1552
orld	-1553
▁announ	-1554
▁lim	-1555
▁X	-1556
▁getting	-1557
▁ben	-1558
▁Sen	-1559
▁prob	-1560
▁&	-1561
▁Pr	-1562
ored	-1563
ederal	-1564
iron	-1565
▁others	-1566
lement	-1567
▁While	-1568
▁Democrat	-1569
ober	-1570
▁Fl	-1571
iety	-1572
ances	-1573
itions	-1574
▁cut	-1575
▁sent	-1576
▁ca	-1577
▁land	-1578
urther	-1579
▁net	-1580
▁light	-1581
▁University	-1582
▁cond	-1583
my	-1584
▁ident	-1585
▁national	-1586
▁account	-1587
▁hig	-1588
▁creat	-1589
▁sour	-1590
▁saf	-1591
▁Sec	-1592
▁close	-1593
▁indust	-1594
▁based	-1595
ashing	-1596
2.	-1597
▁Don	-1598
rest	-1599
▁Cent	-1600
▁history	-1601
▁available	-1602
▁death	-1603
▁2015	-1604
▁issue	-1605
.,	-1606
▁low	-1607
▁party	-1608
▁par	-1609
▁30	-1610
aster	-1611
▁America	-1612
▁following	-1613
▁mom	-1614
▁love	-1615
▁ago	-1616
uly	-1617
ument	-1618
▁started	-1619
▁16	-1620
ination	-1621
▁comes	-1622
▁employ	-1623
▁series	-1624
selves	-1625
▁almost	-1626
use	-1627
orts	-1628
hers	-1629
▁idea	-1630
ilar	-1631
▁experience	-1632
▁isn	-1633
▁2014	-1634
▁trad	-1635
10	-1636
gether	-1637
▁together	-1638
resent	-1639
of	-1640
▁access	-1641
▁area	-1642
ability	-1643
▁trying	-1644
▁added	-1645
ails	-1646
▁foc	-1647
utes	-1648
reed	-1649
▁clear	-1650
ividual	-1651
ief	-1652
▁pract	-1653
though	-1654
ograp	-1655
▁film	-1656
itional	-1657
ring	-1658
30	-1659
▁Eng	-1660
eb	-1661
▁Man	-1662
▁rul	-1663
▁anal	-1664
erence	-1665
minist	-1666
▁half	-1667
▁impro	-1668
ustom	-1669
▁present	-1670
▁live	-1671
▁Gr	-1672
AT	-1673
ream	-1674
3.	-1675
pro	-1676
▁Bro	-1677
unch	-1678
▁complete	-1679
▁six	-1680
nes	-1681
▁miss	-1682
ged	-1683
witter	-1684
▁...	-1685
▁Canad	-1686
ien	-1687
▁anything	-1688
▁bad	-1689
rict	-1690
play	-1691
rael	-1692
//	-1693
▁Ne	-1694
▁saying	-1695
▁looking	-1696
af	-1697
ttp	-1698
▁14	-1699
ows	-1700
raw	-1701
aid	-1702
ai	-1703
▁North	-1704
▁mor	-1705
▁fav	-1706
sy	-1707
▁War	-1708
inton	-1709
▁Su	-1710
▁behind	-1711
ators	-1712
osp	-1713
▁entire	-1714
▁ris	-1715
▁phot	-1716
rug	-1717
▁vict	-1718
▁compet	-1719
cially	-1720
▁Af	-1721
▁individual	-1722
▁bill	-1723
▁military	-1724
▁Car	-1725
▁taken	-1726
irc	-1727
▁try	-1728
▁security	-1729
▁17	-1730
▁court	-1731
▁z	-1732
uge	-1733
▁er	-1734
▁Dep	-1735
▁aut	-1736
▁discuss	-1737
▁Bar	-1738
1.	-1739
▁face	-1740
▁fall	-1741
▁study	-1742
▁mind	-1743
▁Brit	-1744
▁near	-1745
▁Cal	-1746
▁threat	-1747
▁black	-1748
▁cult	-1749
▁tot	-1750
wards	-1751
▁mult	-1752
ert	-1753
▁proper	-1754
▁rather	-1755
▁1.	-1756
▁publ	-1757
▁Just	-1758
://	-1759
▁single	-1760
▁Now	-1761
erman	-1762
▁consider	-1763
▁policy	-1764
atic	-1765
▁comb	-1766
▁Res	-1767
▁tre	-1768
▁National	-1769
▁mess	-1770
▁Ab	-1771
par	-1772
▁sum	-1773
▁Har	-1774
ales	-1775
▁wanted	-1776
1,	-1777
lling	-1778
▁pret	-1779
▁player	-1780
▁someone	-1781
▁Inst	-1782
3,	-1783
olution	-1784
▁bring	-1785
▁His	-1786
▁Israel	-1787
▁My	-1788
off	-1789
▁redu	-1790
▁quick	-1791
▁special	-1792
ids	-1793
▁App	-1794
▁World	-1795
▁:	-1796
ply	-1797
▁These	-1798
▁attempt	-1799
aper	-1800
▁taking	-1801
ify	-1802
▁Dav	-1803
▁City	-1804
▁Clinton	-1805
▁nothing	-1806
▁cou	-1807
▁research	-1808
▁Ed	-1809
▁space	-1810
▁)	-1811
▁compan	-1812
2,	-1813
▁Me	-1814
▁sw	-1815
viron	-1816
ON	-1817
▁food	-1818
IN	-1819
▁foot	-1820
▁key	-1821
▁Some	-1822
▁Part	-1823
▁signific	-1824
▁Aust	-1825
▁front	-1826
▁Jan	-1827
go	-1828
▁body	-1829
▁else	-1830
ault	-1831
cing	-1832
▁probably	-1833
▁points	-1834
elt	-1835
▁describ	-1836
▁jo	-1837
▁coming	-1838
ches	-1839
▁similar	-1840
icult	-1841
▁connect	-1842
▁Gu	-1843
hy	-1844
rote	-1845
▁Do	-1846
▁either	-1847
ming	-1848
▁however	-1849
▁coun	-1850
irl	-1851
▁imm	-1852
amed	-1853
▁decision	-1854
▁exist	-1855
ashington	-1856
▁By	-1857
▁mass	-1858
▁Ge	-1859
▁benef	-1860
▁house	-1861
▁doc	-1862
▁rights	-1863
▁100	-1864
▁feat	-1865
aces	-1866
▁conv	-1867
▁ban	-1868
▁sus	-1869
ully	-1870
▁|	-1871
▁ear	-1872
mb	-1873
.)	-1874
▁targ	-1875
▁compl	-1876
sw	-1877
7.	-1878
▁fire	-1879
reme	-1880
▁hit	-1881
▁chall	-1882
▁service	-1883
▁enc	-1884
asing	-1885
▁repl	-1886
now	-1887
▁whole	-1888
▁further	-1889
▁Acc	-1890
ung	-1891
▁wa	-1892
lam	-1893
over	-1894
ana	-1895
▁stop	-1896
yn	-1897
▁begin	-1898
▁relations	-1899
▁pick	-1900
▁Washington	-1901
▁everything	-1902
▁fig	-1903
▁cand	-1904
▁seems	-1905
▁wrote	-1906
ently	-1907
▁super	-1908
pping	-1909
ape	-1910
▁Ass	-1911
▁meas	-1912
ery	-1913
▁dam	-1914
pite	-1915
▁step	-1916
▁role	-1917
pecially	-1918
ively	-1919
▁field	-1920
▁issues	-1921
▁create	-1922
oon	-1923
▁due	-1924
▁third	-1925
▁room	-1926
▁tra	-1927
▁character	-1928
rodu	-1929
obal	-1930
▁self	-1931
ibility	-1932
amer	-1933
uation	-1934
ried	-1935
▁states	-1936
▁custom	-1937
aul	-1938
▁South	-1939
▁ey	-1940
▁25	-1941
▁China	-1942
▁exec	-1943
▁lab	-1944
head	-1945
▁companies	-1946
▁Dr	-1947
▁<	-1948
▁outside	-1949
itted	-1950
lu	-1951
▁officials	-1952
▁Med	-1953
▁init	-1954
▁provide	-1955
▁leaders	-1956
▁opt	-1957
▁sound	-1958
▁matter	-1959
▁statement	-1960
ilt	-1961
ran	-1962
iday	-1963
▁watch	-1964
▁dou	-1965
▁tem	-1966
▁stri	-1967
▁began	-1968
ogn	-1969
lish	-1970
aced	-1971
▁hours	-1972
▁Intern	-1973
▁position	-1974
vironment	-1975
arlier	-1976
▁federal	-1977
▁above	-1978
▁treat	-1979
IS	-1980
ivil	-1981
▁general	-1982
▁released	-1983
AN	-1984
▁represent	-1985
attle	-1986
▁amount	-1987
▁development	-1988
sec	-1989
▁significant	-1990
▁0.	-1991
▁itself	-1992
▁himself	-1993
▁students	-1994
ades	-1995
lim	-1996
ender	-1997
▁ener	-1998
iod	-1999
▁office	-2000
▁continue	-2001
▁action	-2002
▁final	-2003
▁countries	-2004
▁themselves	-2005
▁larg	-2006
▁neg	-2007
like	-2008
▁Will	-2009
umb	-2010
▁administ	-2011
▁specific	-2012
In	-2013
▁address	-2014
▁break	-2015
ev	-2016
▁gun	-2017
▁simply	-2018
▁198	-2019
▁http	-2020
iddle	-2021
▁stat	-2022
▁bar	-2023
▁true	-2024
▁agree	-2025
OR	-2026
angu	-2027
ogle	-2028
▁ground	-2029
▁wasn	-2030
▁ball	-2031
▁interview	-2032
▁version	-2033
▁became	-2034
▁evidence	-2035
▁Twitter	-2036
▁difficult	-2037
▁News	-2038
arter	-2039
eal	-2040
acebook	-2041
AR	-2042
reg	-2043
ask	-2044
oid	-2045
BC	-2046
▁red	-2047
▁running	-2048
eks	-2049
▁En	-2050
yle	-2051
▁profess	-2052
__	-2053
▁pretty	-2054
▁rad	-2055
ili	-2056
▁typ	-2057
▁shows	-2058
▁lat	-2059
▁respons	-2060
▁woman	-2061
▁drug	-2062
▁common	-2063
▁dest	-2064
▁everyone	-2065
▁groups	-2066
▁needs	-2067
▁cop	-2068
▁dom	-2069
▁below	-2070
▁Mus	-2071
ift	-2072
▁quite	-2073
▁building	-2074
▁saw	-2075
▁*	-2076
▁music	-2077
▁release	-2078
lev	-2079
▁inj	-2080
▁deep	-2081
▁exc	-2082
ournal	-2083
▁ap	-2084
▁needed	-2085
▁West	-2086
▁German	-2087
body	-2088
11	-2089
▁candid	-2090
▁include	-2091
▁playing	-2092
▁industry	-2093
▁White	-2094
▁Pe	-2095
ribut	-2096
▁Per	-2097
▁played	-2098
▁Oct	-2099
ote	-2100
right	-2101
isc	-2102
▁value	-2103
▁gen	-2104
▁lost	-2105
▁late	-2106
▁white	-2107
▁mot	-2108
▁sense	-2109
atur	-2110
▁friends	-2111
▁billion	-2112
ival	-2113
▁phys	-2114
hod	-2115
▁Ste	-2116
▁instead	-2117
▁legal	-2118
▁abs	-2119
▁Cong	-2120
▁mag	-2121
epend	-2122
▁changes	-2123
▁object	-2124
▁Mich	-2125
▁energy	-2126
▁2.	-2127
ager	-2128
▁especially	-2129
▁forward	-2130
▁host	-2131
oring	-2132
▁Facebook	-2133
osing	-2134
▁hom	-2135
▁weeks	-2136
▁recently	-2137
▁alleg	-2138
▁suff	-2139
▁charg	-2140
▁anim	-2141
▁ep	-2142
▁{	-2143
▁Aug	-2144
where	-2145
▁accept	-2146
▁ple	-2147
▁Republican	-2148
▁period	-2149
▁opportun	-2150
▁deter	-2151
▁50	-2152
▁jud	-2153
▁vote	-2154
oke	-2155
▁circ	-2156
ript	-2157
irt	-2158
This	-2159
bo	-2160
▁economic	-2161
ental	-2162
medi	-2163
istic	-2164
▁March	-2165
▁track	-2166
▁wrong	-2167
▁13	-2168
irm	-2169
▁pain	-2170
time	-2171
▁longer	-2172
▁24	-2173
▁block	-2174
▁tit	-2175
▁Google	-2176
▁hope	-2177
▁More	-2178
▁moment	-2179
▁relig	-2180
▁decl	-2181
▁election	-2182
▁higher	-2183
▁Sept	-2184
ights	-2185
▁Department	-2186
15	-2187
▁potential	-2188
▁pie	-2189
▁Em	-2190
▁works	-2191
ij	-2192
ached	-2193
▁site	-2194
ES	-2195
AS	-2196
▁soon	-2197
▁lo	-2198
7,	-2199
▁walk	-2200
▁review	-2201
▁check	-2202
25	-2203
▁Sm	-2204
▁webs	-2205
ularly	-2206
▁consum	-2207
arc	-2208
oe	-2209
▁share	-2210
iding	-2211
duct	-2212
▁According	-2213
▁online	-2214
▁article	-2215
▁function	-2216
ique	-2217
▁focus	-2218
▁cred	-2219
▁educ	-2220
itting	-2221
▁Syri	-2222
▁results	-2223
▁Here	-2224
ners	-2225
▁parent	-2226
den	-2227
▁words	-2228
▁led	-2229
▁shoot	-2230
▁di	-2231
▁Act	-2232
▁held	-2233
▁stay	-2234
▁stru	-2235
fer	-2236
▁June	-2237
lt	-2238
▁laws	-2239
▁sold	-2240
▁Apr	-2241
▁rev	-2242
cial	-2243
ns	-2244
▁Red	-2245
ancial	-2246
99	-2247
▁contract	-2248
St	-2249
▁pred	-2250
alt	-2251
lear	-2252
lege	-2253
▁reve	-2254
asons	-2255
omm	-2256
▁+	-2257
▁express	-2258
▁July	-2259
onse	-2260
itution	-2261
fect	-2262
▁wind	-2263
cil	-2264
16	-2265
ude	-2266
▁applic	-2267
key	-2268
ole	-2269
▁ce	-2270
▁aud	-2271
▁prim	-2272
ule	-2273
▁total	-2274
▁code	-2275
ilities	-2276
▁den	-2277
▁pack	-2278
▁minutes	-2279
▁services	-2280
▁age	-2281
▁popular	-2282
▁earlier	-2283
▁base	-2284
▁upd	-2285
▁personal	-2286
▁target	-2287
ham	-2288
▁risk	-2289
▁hy	-2290
▁answ	-2291
▁rate	-2292
▁expected	-2293
haps	-2294
che	-2295
put	-2296
anger	-2297
▁anyone	-2298
▁Congress	-2299
14	-2300
ients	-2301
ees	-2302
▁Off	-2303
aut	-2304
▁dead	-2305
▁comput	-2306
▁environment	-2307
▁anti	-2308
▁created	-2309
val	-2310
▁received	-2311
iter	-2312
▁Hill	-2313
▁langu	-2314
ples	-2315
▁necess	-2316
▁type	-2317
▁private	-2318
▁respect	-2319
▁Mond	-2320
▁scient	-2321
aging	-2322
▁@	-2323
▁Ag	-2324
▁force	-2325
apan	-2326
uary	-2327
▁surpr	-2328
▁favor	-2329
▁comment	-2330
▁problems	-2331
▁God	-2332
rel	-2333
▁El	-2334
iple	-2335
ends	-2336
eter	-2337
uel	-2338
isl	-2339
▁vol	-2340
▁increase	-2341
▁impact	-2342
▁ways	-2343
▁announced	-2344
▁goal	-2345
▁Des	-2346
▁cannot	-2347
aterial	-2348
▁technology	-2349
▁port	-2350
reet	-2351
hood	-2352
▁shot	-2353
▁model	-2354
▁Cont	-2355
12	-2356
▁div	-2357
▁pur	-2358
▁Austral	-2359
▁Friday	-2360
▁197	-2361
itten	-2362
▁sen	-2363
▁easy	-2364
hern	-2365
ittee	-2366
8,	-2367
aving	-2368
ateg	-2369
icro	-2370
na	-2371
action	-2372
▁speak	-2373
▁et	-2374
lex	-2375
ray	-2376
▁questions	-2377
▁leave	-2378
▁April	-2379
▁involved	-2380
hel	-2381
▁inside	-2382
▁nearly	-2383
▁Tues	-2384
atives	-2385
▁cell	-2386
ises	-2387
okes	-2388
▁cases	-2389
9.	-2390
▁relationship	-2391
mon	-2392
▁Russia	-2393
▁exact	-2394
▁Count	-2395
bit	-2396
▁civil	-2397
ires	-2398
▁Monday	-2399
▁capt	-2400
▁ur	-2401
itiz	-2402
▁original	-2403
▁execut	-2404
▁terror	-2405
▁Tuesday	-2406
▁Even	-2407
▁staff	-2408
8.	-2409
onst	-2410
▁Qu	-2411
eed	-2412
▁First	-2413
▁fans	-2414
▁coll	-2415
▁users	-2416
▁heart	-2417
▁Cour	-2418
▁international	-2419
▁Wed	-2420
▁nation	-2421
▁Americans	-2422
ams	-2423
▁Cor	-2424
▁Calif	-2425
▁arrest	-2426
bor	-2427
▁associ	-2428
▁living	-2429
▁cal	-2430
▁San	-2431
▁David	-2432
▁mother	-2433
▁price	-2434
▁log	-2435
▁broad	-2436
▁estab	-2437
▁Japan	-2438
▁average	-2439
▁worth	-2440
rem	-2441
lled	-2442
ael	-2443
EN	-2444
▁oil	-2445
osition	-2446
▁content	-2447
▁immedi	-2448
▁global	-2449
▁response	-2450
▁reports	-2451
▁weap	-2452
▁collect	-2453
ellig	-2454
ging	-2455
-2	-2456
▁Feb	-2457
▁tou	-2458
ites	-2459
9,	-2460
izing	-2461
ological	-2462
▁Gl	-2463
▁chance	-2464
▁influ	-2465
▁becom	-2466
▁ability	-2467
ctor	-2468
osh	-2469
▁Pal	-2470
▁killed	-2471
ops	-2472
▁obs	-2473
oto	-2474
▁soft	-2475
▁foreign	-2476
ze	-2477
▁club	-2478
▁director	-2479
▁Her	-2480
▁Paul	-2481
▁subject	-2482
rought	-2483
▁workers	-2484
▁terms	-2485
omb	-2486
▁Sch	-2487
ests	-2488
clus	-2489
▁published	-2490
cast	-2491
▁bur	-2492
▁source	-2493
▁worked	-2494
joy	-2495
▁respond	-2496
▁takes	-2497
▁buy	-2498
ky	-2499
▁road	-2500
▁decided	-2501
atural	-2502
unt	-2503
▁Islam	-2504
▁Geor	-2505
ips	-2506
▁happened	-2507
▁defin	-2508
▁method	-2509
▁mid	-2510
▁emer	-2511
He	-2512
▁lack	-2513
▁gave	-2514
▁fem	-2515
▁Spe	-2516
▁financial	-2517
▁squ	-2518
▁require	-2519
▁Ang	-2520
▁phone	-2521
▁situation	-2522
▁adm	-2523
▁material	-2524
rect	-2525
Wh	-2526
▁plans	-2527
4.	-2528
▁indic	-2529
▁girl	-2530
nesday	-2531
▁offer	-2532
▁store	-2533
▁ill	-2534
▁Sund	-2535
rain	-2536
▁capital	-2537
ought	-2538
You	-2539
▁member	-2540
▁meeting	-2541
▁teams	-2542
▁particip	-2543
▁Post	-2544
oved	-2545
▁whose	-2546
▁network	-2547
60	-2548
▁Wednesday	-2549
based	-2550
▁September	-2551
▁performance	-2552
▁recogn	-2553
▁pict	-2554
▁goes	-2555
▁Thurs	-2556
vertise	-2557
▁simple	-2558
▁affect	-2559
▁text	-2560
▁norm	-2561
▁currently	-2562
▁couple	-2563
ills	-2564
ino	-2565
▁events	-2566
▁tal	-2567
▁lives	-2568
▁arri	-2569
ruction	-2570
▁introdu	-2571
▁turned	-2572
▁January	-2573
▁40	-2574
▁regard	-2575
▁TV	-2576
▁Of	-2577
ovember	-2578
ese	-2579
▁Thursday	-2580
▁Afric	-2581
▁areas	-2582
".	-2583
▁European	-2584
▁administration	-2585
▁via	-2586
fully	-2587
bl	-2588
▁3.	-2589
▁approach	-2590
ume	-2591
istan	-2592
▁Californ	-2593
▁huge	-2594
ett	-2595
chie	-2596
▁round	-2597
▁cy	-2598
oud	-2599
apt	-2600
5.	-2601
▁British	-2602
ety	-2603
▁match	-2604
▁economy	-2605
▁page	-2606
▁}	-2607
▁numbers	-2608
▁Ke	-2609
▁father	-2610
▁mis	-2611
▁pull	-2612
▁ord	-2613
▁felt	-2614
▁engine	-2615
order	-2616
▁October	-2617
▁improve	-2618
▁Tw	-2619
▁career	-2620
▁email	-2621
▁allowed	-2622
load	-2623
▁August	-2624
▁website	-2625
ructure	-2626
▁boy	-2627
▁bank	-2628
▁victim	-2629
rown	-2630
▁hon	-2631
▁November	-2632
▁thous	-2633
▁repe	-2634
oor	-2635
avy	-2636
▁2017	-2637
▁cover	-2638
6.	-2639
aily	-2640
▁lower	-2641
▁Black	-2642
▁tool	-2643
▁Then	-2644
▁Kore	-2645
▁wide	-2646
▁Court	-2647
▁fre	-2648
face	-2649
uses	-2650
▁quickly	-2651
▁trade	-2652
▁Canada	-2653
down	-2654
▁loss	-2655
▁California	-2656
▁neigh	-2657
▁wants	-2658
▁built	-2659
▁race	-2660
▁ste	-2661
▁travel	-2662
▁dig	-2663
iction	-2664
▁separ	-2665
cember	-2666
▁pers	-2667
ctions	-2668
▁production	-2669
▁poll	-2670
aur	-2671
ences	-2672
][	-2673
▁Sunday	-2674
▁spent	-2675
estern	-2676
▁board	-2677
▁Pat	-2678
▁heard	-2679
▁knew	-2680
▁enjoy	-2681
▁reveal	-2682
atory	-2683
”.	-2684
▁secret	-2685
▁cause	-2686
▁UK	-2687
▁Par	-2688
▁hands	-2689
▁included	-2690
▁1,	-2691
▁Sw	-2692
▁perfect	-2693
▁legisl	-2694
▁fear	-2695
hic	-2696
▁town	-2697
ED	-2698
▁population	-2699
▁attention	-2700
▁India	-2701
▁particular	-2702
▁behav	-2703
40	-2704
▁gets	-2705
agement	-2706
▁Jew	-2707
▁visit	-2708
▁image	-2709
▁tried	-2710
▁bi	-2711
▁ens	-2712
orters	-2713
▁movement	-2714
ech	-2715
force	-2716
▁fell	-2717
▁looks	-2718
▁various	-2719
?”	-2720
ibly	-2721
6,	-2722
▁sett	-2723
ris	-2724
ened	-2725
gest	-2726
▁reach	-2727
sych	-2728
▁forces	-2729
inks	-2730
ession	-2731
▁liber	-2732
ining	-2733
▁Russian	-2734
▁Mark	-2735
▁December	-2736
▁growth	-2737
ps	-2738
▁Int	-2739
▁mention	-2740
urd	-2741
anks	-2742
▁fair	-2743
idents	-2744
▁IS	-2745
oph	-2746
▁brought	-2747
▁rules	-2748
If	-2749
ening	-2750
ishing	-2751
arily	-2752
sequ	-2753
ground	-2754
hold	-2755
▁contact	-2756
▁demand	-2757
▁size	-2758
▁link	-2759
idered	-2760
▁hor	-2761
▁Park	-2762
▁coach	-2763
ification	-2764
",	-2765
13	-2766
▁training	-2767
raz	-2768
▁Senate	-2769
▁Party	-2770
▁leader	-2771
cle	-2772
▁From	-2773
▁bud	-2774
▁vo	-2775
come	-2776
▁independ	-2777
▁Fin	-2778
ysis	-2779
yond	-2780
aker	-2781
▁ess	-2782
undred	-2783
▁rac	-2784
▁Che	-2785
ceed	-2786
----	-2787
cies	-2788
▁exam	-2789
ledge	-2790
▁previous	-2791
▁morning	-2792
iers	-2793
alled	-2794
iant	-2795
▁prep	-2796
▁language	-2797
▁Street	-2798
▁hot	-2799
▁Times	-2800
▁strugg	-2801
▁latest	-2802
▁talking	-2803
▁2010	-2804
);	-2805
uk	-2806
ondon	-2807
▁search	-2808
▁progress	-2809
ille	-2810
▁Iran	-2811
oo	-2812
ecause	-2813
▁citiz	-2814
There	-2815
▁speed	-2816
▁(2	-2817
asc	-2818
▁addition	-2819
▁upon	-2820
ma	-2821
fl	-2822
ny	-2823
unk	-2824
▁Tex	-2825
ges	-2826
▁features	-2827
▁star	-2828
▁County	-2829
▁medical	-2830
▁und	-2831
elligence	-2832
de	-2833
raq	-2834
▁considered	-2835
▁box	-2836
▁King	-2837
▁levels	-2838
▁systems	-2839
AL	-2840
arth	-2841
field	-2842
OS	-2843
▁wond	-2844
▁document	-2845
uments	-2846
vent	-2847
▁McC	-2848
imately	-2849
rim	-2850
▁song	-2851
▁achie	-2852
▁slow	-2853
aries	-2854
▁Cons	-2855
▁prior	-2856
▁fast	-2857
het	-2858
aturday	-2859
▁critic	-2860
▁Up	-2861
▁card	-2862
IT	-2863
▁written	-2864
▁sort	-2865
▁Net	-2866
▁reb	-2867
ament	-2868
▁2013	-2869
▁immig	-2870
▁investigation	-2871
▁conduct	-2872
AC	-2873
▁jobs	-2874
▁completely	-2875
▁Center	-2876
▁doll	-2877
ope	-2878
▁Donald	-2879
uit	-2880
▁Muslim	-2881
▁sexual	-2882
▁Mor	-2883
▁Iraq	-2884
▁seven	-2885
▁conserv	-2886
▁effort	-2887
▁safe	-2888
▁draw	-2889
ani	-2890
▁pen	-2891
▁seek	-2892
▁prevent	-2893
17	-2894
▁son	-2895
▁sn	-2896
▁parents	-2897
▁Rom	-2898
▁TH	-2899
▁mach	-2900
rast	-2901
uf	-2902
▁Soc	-2903
▁sens	-2904
▁London	-2905
▁hear	-2906
▁2012	-2907
▁inn	-2908
▁increasing	-2909
eff	-2910
▁Lab	-2911
▁Let	-2912
▁serious	-2913
bed	-2914
ico	-2915
set	-2916
ources	-2917
▁learn	-2918
▁Other	-2919
▁Police	-2920
▁particularly	-2921
▁spokes	-2922
reedom	-2923
▁Michael	-2924
▁Saturday	-2925
▁Gener	-2926
▁Bill	-2927
80	-2928
▁movie	-2929
▁despite	-2930
▁extreme	-2931
▁majority	-2932
pir	-2933
▁eight	-2934
inese	-2935
▁screen	-2936
aming	-2937
idge	-2938
itch	-2939
▁doub	-2940
▁East	-2941
▁Tur	-2942
▁attacks	-2943
ruary	-2944
▁bott	-2945
▁society	-2946
▁conc	-2947
▁range	-2948
▁experien	-2949
rench	-2950
pper	-2951
▁regul	-2952
-0	-2953
eared	-2954
▁modern	-2955
▁histor	-2956
▁guy	-2957
entially	-2958
▁climate	-2959
▁interesting	-2960
▁carry	-2961
IC	-2962
ari	-2963
▁opportunity	-2964
▁obv	-2965
▁Sim	-2966
▁required	-2967
room	-2968
tr	-2969
isions	-2970
▁message	-2971
atform	-2972
▁answer	-2973
▁Read	-2974
▁practice	-2975
▁violence	-2976
anced	-2977
▁paid	-2978
▁paper	-2979
▁Sand	-2980
▁Most	-2981
OP	-2982
▁claims	-2983
illed	-2984
vey	-2985
▁remain	-2986
▁journal	-2987
oses	-2988
nces	-2989
lin	-2990
▁convers	-2991
ension	-2992
▁table	-2993
▁changed	-2994
▁middle	-2995
▁details	-2996
▁sometimes	-2997
▁exactly	-2998
▁biggest	-2999
▁extra	-3000
erve	-3001
▁Republicans	-3002
▁Coun	-3003
vertisement	-3004
▁aren	-3005
utions	-3006
ospital	-3007
atter	-3008
▁hundred	-3009
▁James	-3010
▁stories	-3011
▁quarter	-3012
▁occur	-3013
▁looked	-3014
light	-3015
aves	-3016
▁officers	-3017
19	-3018
▁aw	-3019
▁science	-3020
▁except	-3021
5,	-3022
lying	-3023
▁February	-3024
▁cross	-3025
▁ult	-3026
▁leading	-3027
▁dro	-3028
▁starting	-3029
▁finally	-3030
▁showed	-3031
▁surv	-3032
▁prison	-3033
ously	-3034
▁Since	-3035
▁certainly	-3036
erc	-3037
▁term	-3038
uclear	-3039
▁stuff	-3040
US	-3041
▁described	-3042
▁parts	-3043
▁defense	-3044
▁natural	-3045
4,	-3046
▁poor	-3047
▁communic	-3048
▁mob	-3049
▁user	-3050
▁summer	-3051
ibr	-3052
▁ones	-3053
▁gas	-3054
▁writing	-3055
uing	-3056
▁Democratic	-3057
▁Chinese	-3058
▁damage	-3059
▁comments	-3060
▁Mon	-3061
▁chief	-3062
▁costs	-3063
▁Play	-3064
▁demonst	-3065
▁pan	-3066
▁education	-3067
▁giving	-3068
▁danger	-3069
▁named	-3070
▁hous	-3071
▁Why	-3072
▁camer	-3073
▁provided	-3074
▁quality	-3075
▁crim	-3076
▁blood	-3077
▁wouldn	-3078
▁Jack	-3079
▁item	-3080
▁imag	-3081
▁rout	-3082
hib	-3083
ida	-3084
▁path	-3085
mp	-3086
▁lay	-3087
▁culture	-3088
▁Ser	-3089
▁Dis	-3090
▁ready	-3091
arian	-3092
▁write	-3093
▁Many	-3094
coin	-3095
enge	-3096
▁assist	-3097
▁Texas	-3098
sp	-3099
▁purp	-3100
▁fix	-3101
▁21	-3102
▁maintain	-3103
aught	-3104
▁purch	-3105
▁4.	-3106
▁continued	-3107
▁remains	-3108
▁products	-3109
akers	-3110
ban	-3111
▁multiple	-3112
inary	-3113
arr	-3114
oul	-3115
▁Rec	-3116
▁efforts	-3117
▁region	-3118
▁epis	-3119
ha	-3120
▁increased	-3121
aly	-3122
▁died	-3123
▁thinking	-3124
▁mill	-3125
fort	-3126
▁perhaps	-3127
▁consist	-3128
▁implement	-3129
▁file	-3130
▁reading	-3131
▁>	-3132
▁guys	-3133
icks	-3134
inated	-3135
▁although	-3136
▁calls	-3137
▁Green	-3138
▁alone	-3139
▁voters	-3140
▁directly	-3141
omp	-3142
▁usually	-3143
▁growing	-3144
▁League	-3145
▁Mart	-3146
▁standard	-3147
▁Rich	-3148
▁effects	-3149
mit	-3150
▁Every	-3151
▁reality	-3152
▁(@	-3153
▁opin	-3154
▁spot	-3155
ux	-3156
▁William	-3157
▁Indian	-3158
Ph	-3159
FL	-3160
▁select	-3161
▁student	-3162
▁brain	-3163
▁couldn	-3164
ford	-3165
▁towards	-3166
icated	-3167
overed	-3168
▁tur	-3169
rowd	-3170
▁unf	-3171
▁Minister	-3172
▁Bo	-3173
▁includes	-3174
ago	-3175
▁sle	-3176
▁football	-3177
ables	-3178
▁complex	-3179
▁avoid	-3180
itute	-3181
▁ver	-3182
▁tro	-3183
▁throughout	-3184
▁beyond	-3185
▁Bel	-3186
▁challeng	-3187
▁Super	-3188
▁remember	-3189
▁Apple	-3190
eth	-3191
▁kids	-3192
oper	-3193
iles	-3194
▁Add	-3195
▁subst	-3196
▁scene	-3197
AM	-3198
▁cele	-3199
▁request	-3200
▁additional	-3201
▁recomm	-3202
▁twe	-3203
▁designed	-3204
▁Over	-3205
egr	-3206
▁Serv	-3207
▁cast	-3208
▁Rober	-3209
▁Democrats	-3210
▁immediately	-3211
ression	-3212
▁Day	-3213
▁rob	-3214
▁choice	-3215
▁center	-3216
ilies	-3217
▁English	-3218
▁x	-3219
▁officer	-3220
omen	-3221
anch	-3222
▁platform	-3223
aches	-3224
▁clos	-3225
▁Well	-3226
▁counter	-3227
▁Comp	-3228
▁receive	-3229
▁ahead	-3230
▁meaning	-3231
▁Our	-3232
wise	-3233
▁speech	-3234
▁safety	-3235
iment	-3236
▁researc	-3237
icient	-3238
using	-3239
▁gone	-3240
▁toward	-3241
▁Last	-3242
▁agency	-3243
▁wife	-3244
▁concept	-3245
▁blog	-3246
hest	-3247
agon	-3248
adem	-3249
zz	-3250
▁Ben	-3251
▁sil	-3252
astic	-3253
▁Associ	-3254
rated	-3255
▁sell	-3256
▁relative	-3257
▁software	-3258
▁il	-3259
▁touch	-3260
▁dog	-3261
atever	-3262
▁pressure	-3263
chan	-3264
▁Val	-3265
roy	-3266
▁II	-3267
▁ign	-3268
ext	-3269
▁French	-3270
▁corpor	-3271
rief	-3272
▁device	-3273
add	-3274
▁moved	-3275
▁launch	-3276
▁ten	-3277
▁stage	-3278
▁option	-3279
ara	-3280
▁figure	-3281
▁letter	-3282
▁park	-3283
ston	-3284
▁Get	-3285
▁cris	-3286
▁thousands	-3287
▁passed	-3288
▁swe	-3289
ports	-3290
▁piece	-3291
▁ut	-3292
▁clean	-3293
▁debate	-3294
airs	-3295
▁nom	-3296
bur	-3297
▁organization	-3298
▁characters	-3299
▁rock	-3300
▁reasons	-3301
▁league	-3302
▁drive	-3303
As	-3304
more	-3305
olute	-3306
▁tour	-3307
▁disapp	-3308
itor	-3309
▁conditions	-3310
▁date	-3311
itness	-3312
▁moving	-3313
ampions	-3314
ource	-3315
▁difference	-3316
irth	-3317
▁myself	-3318
imum	-3319
▁happy	-3320
▁Like	-3321
▁dark	-3322
▁aim	-3323
18	-3324
▁Although	-3325
OT	-3326
aughter	-3327
iny	-3328
▁Tor	-3329
just	-3330
?"	-3331
rupt	-3332
▁appears	-3333
▁maybe	-3334
▁deg	-3335
▁Star	-3336
itation	-3337
▁22	-3338
▁score	-3339
▁failed	-3340
▁century	-3341
▁schools	-3342
BI	-3343
▁prec	-3344
lease	-3345
urt	-3346
**	-3347
▁alleged	-3348
▁analysis	-3349
berg	-3350
▁helped	-3351
▁shown	-3352
▁Tom	-3353
▁limited	-3354
▁60	-3355
":	-3356
ufact	-3357
▁positive	-3358
▁bal	-3359
▁property	-3360
enty	-3361
▁Mex	-3362
▁sat	-3363
men	-3364
ocked	-3365
▁$2	-3366
▁candidate	-3367
▁estim	-3368
▁Sci	-3369
▁beginning	-3370
yan	-3371
new	-3372
▁college	-3373
▁Air	-3374
▁fan	-3375
▁suspect	-3376
▁books	-3377
▁Def	-3378
▁encour	-3379
▁contribut	-3380
▁La	-3381
▁presidential	-3382
▁nuclear	-3383
▁23	-3384
iable	-3385
▁band	-3386
▁command	-3387
▁yes	-3388
▁computer	-3389
aph	-3390
▁conference	-3391
▁wall	-3392
▁powerful	-3393
▁title	-3394
▁Wind	-3395
▁nature	-3396
▁Syria	-3397
▁compared	-3398
▁Govern	-3399
▁necessary	-3400
▁meant	-3401
▁largest	-3402
▁budget	-3403
RE	-3404
▁High	-3405
▁stra	-3406
▁correct	-3407
▁196	-3408
▁refer	-3409
▁gives	-3410
▁throw	-3411
▁overall	-3412
▁crowd	-3413
▁Because	-3414
▁Jer	-3415
▁feature	-3416
▁religious	-3417
▁Ham	-3418
▁streng	-3419
▁note	-3420
ivity	-3421
▁families	-3422
▁display	-3423
▁Met	-3424
▁copy	-3425
▁trust	-3426
▁Cap	-3427
▁forced	-3428
▁citizens	-3429
▁draft	-3430
▁grad	-3431
▁yourself	-3432
▁School	-3433
orney	-3434
▁battle	-3435
wood	-3436
▁firm	-3437
▁eyes	-3438
They	-3439
▁pus	-3440
▁Advertisement	-3441
ken	-3442
▁susp	-3443
▁cool	-3444
▁executive	-3445
▁psych	-3446
oday	-3447
aint	-3448
▁detail	-3449
▁confir	-3450
oes	-3451
ube	-3452
▁EU	-3453
▁eventually	-3454
▁sal	-3455
▁feed	-3456
craft	-3457
▁physical	-3458
▁spending	-3459
orks	-3460
▁easily	-3461
▁Rob	-3462
▁central	-3463
1]	-3464
iring	-3465
▁Ant	-3466
▁esc	-3467
▁treatment	-3468
▁arch	-3469
▁mix	-3470
▁senior	-3471
▁allows	-3472
▁sche	-3473
▁disp	-3474
▁aware	-3475
ares	-3476
▁Angel	-3477
▁cat	-3478
▁People	-3479
▁analy	-3480
▁actions	-3481
▁Smith	-3482
▁income	-3483
▁During	-3484
▁altern	-3485
cul	-3486
▁autom	-3487
▁weapons	-3488
-3	-3489
▁International	-3490
▁signed	-3491
▁Reg	-3492
band	-3493
70	-3494
▁George	-3495
▁door	-3496
▁Brown	-3497
▁sales	-3498
▁Ber	-3499
▁illeg	-3500
▁developed	-3501
dd	-3502
▁unique	-3503
encies	-3504
▁individuals	-3505
venue	-3506
▁Australia	-3507
▁promot	-3508
iance	-3509
▁followed	-3510
▁benefits	-3511
▁crisis	-3512
▁Christian	-3513
▁General	-3514
▁Franc	-3515
board	-3516
▁uses	-3517
▁credit	-3518
....	-3519
▁drop	-3520
ressed	-3521
▁save	-3522
▁lif	-3523
▁nice	-3524
ram	-3525
▁2011	-3526
▁Art	-3527
▁Earth	-3528
▁apparent	-3529
orter	-3530
▁programs	-3531
EC	-3532
▁Union	-3533
lements	-3534
erved	-3535
▁ideas	-3536
▁truth	-3537
▁har	-3538
▁advant	-3539
▁•	-3540
▁emot	-3541
▁continues	-3542
▁Bu	-3543
onents	-3544
rol	-3545
▁politics	-3546
ota	-3547
▁appeared	-3548
▁frequ	-3549
▁noted	-3550
▁decades	-3551
▁Bre	-3552
▁customers	-3553
▁mist	-3554
urance	-3555
ET	-3556
uty	-3557
▁Flor	-3558
▁smart	-3559
AP	-3560
▁rap	-3561
▁clearly	-3562
▁minor	-3563
bum	-3564
▁expand	-3565
onent	-3566
▁larger	-3567
▁dise	-3568
▁Gold	-3569
▁manager	-3570
part	-3571
ero	-3572
▁crime	-3573
▁projects	-3574
▁predict	-3575
ville	-3576
▁intelligence	-3577
▁Us	-3578
▁highly	-3579
▁Trans	-3580
▁fully	-3581
iders	-3582
▁challenge	-3583
▁related	-3584
▁attract	-3585
ki	-3586
▁lines	-3587
▁Mac	-3588
▁Scott	-3589
▁successful	-3590
▁Oh	-3591
▁ang	-3592
▁Council	-3593
▁sto	-3594
riage	-3595
rate	-3596
▁measure	-3597
iced	-3598
▁seemed	-3599
▁Germany	-3600
▁rule	-3601
▁Alex	-3602
itely	-3603
net	-3604
▁conflic	-3605
▁previously	-3606
resh	-3607
▁rates	-3608
aud	-3609
▁send	-3610
▁emb	-3611
▁Another	-3612
▁charge	-3613
▁manufact	-3614
▁goals	-3615
oti	-3616
▁liter	-3617
▁studies	-3618
ID	-3619
icit	-3620
secut	-3621
change	-3622
OM	-3623
▁incident	-3624
▁Internet	-3625
▁beaut	-3626
mar	-3627
▁kept	-3628
▁resources	-3629
▁brother	-3630
▁lic	-3631
nown	-3632
Ch	-3633
▁rare	-3634
▁rise	-3635
▁straight	-3636
▁knowledge	-3637
▁prices	-3638
owers	-3639
▁color	-3640
IA	-3641
▁reform	-3642
term	-3643
lick	-3644
▁traff	-3645
▁regular	-3646
▁Sam	-3647
▁Follow	-3648
▁determin	-3649
▁Mag	-3650
▁peace	-3651
▁spread	-3652
▁style	-3653
▁primary	-3654
pre	-3655
levision	-3656
▁Arab	-3657
yl	-3658
▁greater	-3659
▁Your	-3660
ingly	-3661
▁prem	-3662
▁Law	-3663
while	-3664
box	-3665
ounds	-3666
▁spir	-3667
▁normal	-3668
▁England	-3669
▁Att	-3670
sey	-3671
▁cities	-3672
antly	-3673
▁Also	-3674
▁Two	-3675
▁laun	-3676
▁haven	-3677
ado	-3678
2]	-3679
▁arm	-3680
▁calling	-3681
▁shut	-3682
▁£	-3683
▁happens	-3684
▁places	-3685
▁web	-3686
▁sources	-3687
roll	-3688
▁criminal	-3689
inger	-3690
▁pun	-3691
▁caused	-3692
▁fine	-3693
▁Cr	-3694
▁reflect	-3695
▁organiz	-3696
▁vac	-3697
▁feet	-3698
▁activity	-3699
usion	-3700
ocks	-3701
▁knows	-3702
EL	-3703
▁Mod	-3704
▁owners	-3705
▁mechan	-3706
▁status	-3707
▁Hillary	-3708
▁enem	-3709
wide	-3710
▁origin	-3711
▁female	-3712
▁fighting	-3713
que	-3714
▁Bay	-3715
▁ended	-3716
):	-3717
olic	-3718
bon	-3719
▁Mike	-3720
▁freedom	-3721
EO	-3722
▁5.	-3723
▁jump	-3724
▁Stud	-3725
▁integr	-3726
▁scen	-3727
▁minister	-3728
▁basic	-3729
dom	-3730
▁Florida	-3731
▁options	-3732
ength	-3733
▁voice	-3734
▁Phil	-3735
▁impl	-3736
▁pros	-3737
▁funding	-3738
▁uns	-3739
▁reached	-3740
▁Port	-3741
▁researchers	-3742
▁cry	-3743
ifying	-3744
▁hospital	-3745
▁authorities	-3746
▁claimed	-3747
▁Op	-3748
▁Chic	-3749
▁lik	-3750
▁shooting	-3751
▁eth	-3752
roid	-3753
▁Pre	-3754
iverse	-3755
▁favorite	-3756
▁spend	-3757
▁AM	-3758
▁agreement	-3759
▁names	-3760
rs	-3761
▁Mo	-3762
▁offered	-3763
aith	-3764
▁slight	-3765
▁supposed	-3766
uman	-3767
▁raised	-3768
▁virt	-3769
iled	-3770
▁adding	-3771
▁leaving	-3772
▁absolute	-3773
▁seeing	-3774
▁grand	-3775
▁Sun	-3776
▁propos	-3777
▁France	-3778
▁ensure	-3779
▁concerns	-3780
ica	-3781
45	-3782
ipp	-3783
▁mer	-3784
earch	-3785
uana	-3786
▁traditional	-3787
▁application	-3788
▁creating	-3789
▁policies	-3790
▁appl	-3791
▁employees	-3792
.’	-3793
▁eye	-3794
▁push	-3795
ya	-3796
▁green	-3797
oles	-3798
ona	-3799
▁plant	-3800
ww	-3801
▁Sl	-3802
▁actual	-3803
▁weekend	-3804
▁adult	-3805
org	-3806
ipped	-3807
▁trou	-3808
ribution	-3809
soft	-3810
itude	-3811
▁posted	-3812
▁brief	-3813
vere	-3814
▁album	-3815
▁ir	-3816
ING	-3817
▁Lou	-3818
”,	-3819
mark	-3820
▁Rel	-3821
▁adop	-3822
▁Instead	-3823
▁weight	-3824
What	-3825
AD	-3826
▁Secret	-3827
▁Micro	-3828
▁behavior	-3829
▁influence	-3830
▁Yes	-3831
▁Johnson	-3832
▁Mil	-3833
▁establ	-3834
▁acqu	-3835
▁beat	-3836
.'	-3837
▁Chicago	-3838
▁charges	-3839
▁print	-3840
▁Security	-3841
▁patients	-3842
acing	-3843
ijuana	-3844
/2	-3845
▁Health	-3846
▁perm	-3847
▁gold	-3848
▁beg	-3849
arliam	-3850
alse	-3851
▁picture	-3852
rian	-3853
▁hero	-3854
▁Liber	-3855
gen	-3856
▁2,	-3857
▁mostly	-3858
▁Are	-3859
▁Bit	-3860
▁station	-3861
▁AP	-3862
▁strate	-3863
▁tend	-3864
▁strategy	-3865
www	-3866
▁Once	-3867
▁install	-3868
▁wait	-3869
▁commit	-3870
▁Press	-3871
▁willing	-3872
aby	-3873
▁asking	-3874
▁whatever	-3875
ront	-3876
▁residents	-3877
▁choose	-3878
▁wonder	-3879
▁believed	-3880
3]	-3881
500	-3882
▁enter	-3883
▁parties	-3884
▁rank	-3885
see	-3886
▁commer	-3887
▁assault	-3888
rav	-3889
▁critical	-3890
cher	-3891
SA	-3892
▁birth	-3893
▁devices	-3894
pri	-3895
▁values	-3896
▁Ter	-3897
▁Found	-3898
no	-3899
▁Step	-3900
igned	-3901
▁street	-3902
▁Korea	-3903
▁Sub	-3904
▁pattern	-3905
▁enforce	-3906
ection	-3907
▁Western	-3908
▁whom	-3909
▁26	-3910
▁revealed	-3911
arliament	-3912
▁arrested	-3913
▁massive	-3914
▁Pri	-3915
▁feeling	-3916
ented	-3917
▁Mal	-3918
▁learned	-3919
▁qual	-3920
▁showing	-3921
▁dire	-3922
istry	-3923
rant	-3924
▁mission	-3925
▁section	-3926
▁independent	-3927
4]	-3928
But	-3929
▁tick	-3930
▁temper	-3931
▁provides	-3932
inn	-3933
▁lose	-3934
▁Inc	-3935
ription	-3936
▁mount	-3937
rants	-3938
▁runs	-3939
aked	-3940
IL	-3941
▁produce	-3942
ograph	-3943
point	-3944
▁27	-3945
▁Bush	-3946
▁lawy	-3947
▁images	-3948
▁Chris	-3949
▁judge	-3950
▁Francis	-3951
▁Under	-3952
▁cru	-3953
ocr	-3954
▁confirmed	-3955
▁unc	-3956
ste	-3957
▁drink	-3958
gency	-3959
▁opinion	-3960
▁Commission	-3961
ae	-3962
▁Del	-3963
▁wat	-3964
▁negoti	-3965
▁records	-3966
▁Ev	-3967
▁28	-3968
▁fat	-3969
90	-3970
ags	-3971
▁district	-3972
ties	-3973
▁Big	-3974
▁Mad	-3975
amb	-3976
▁Dist	-3977
▁opposition	-3978
▁core	-3979
▁celebr	-3980
▁produced	-3981
▁dollars	-3982
▁border	-3983
aks	-3984
▁learning	-3985
▁solution	-3986
▁Wall	-3987
▁Justice	-3988
▁Committee	-3989
▁brand	-3990
▁digital	-3991
▁vill	-3992
abor	-3993
▁fit	-3994
▁offers	-3995
▁dream	-3996
That	-3997
:0	-3998
eline	-3999
▁teac	-4000
ias	-4001
▁vs	-4002
▁Great	-4003
▁advoc	-4004
____	-4005
▁highest	-4006
▁Image	-4007
▁proposed	-4008
▁defend	-4009
▁opening	-4010
odes	-4011
mine	-4012
cell	-4013
▁debt	-4014
icians	-4015
▁benefit	-4016
FC	-4017
▁interested	-4018
▁operations	-4019
▁theory	-4020
▁etc	-4021
▁sleep	-4022
▁memory	-4023
▁millions	-4024
▁protest	-4025
lant	-4026
▁chem	-4027
ugg	-4028
▁types	-4029
▁trial	-4030
▁wild	-4031
▁replace	-4032
▁heavy	-4033
▁television	-4034
35	-4035
▁investment	-4036
▁Those	-4037
▁Palest	-4038
icial	-4039
rial	-4040
▁explained	-4041
▁Any	-4042
▁cars	-4043
▁effective	-4044
ih	-4045
And	-4046
rows	-4047
estic	-4048
▁daily	-4049
za	-4050
▁responsible	-4051
▁NFL	-4052
▁kick	-4053
ords	-4054
▁Game	-4055
▁male	-4056
▁condition	-4057
iation	-4058
▁advantage	-4059
ipe	-4060
witch	-4061
▁join	-4062
vest	-4063
orial	-4064
▁Islamic	-4065
▁Office	-4066
▁Ty	-4067
▁associated	-4068
▁reject	-4069
▁worse	-4070
▁chair	-4071
▁mur	-4072
▁announce	-4073
▁camera	-4074
hicle	-4075
▁agreed	-4076
ghan	-4077
▁opened	-4078
▁restrict	-4079
▁map	-4080
▁generally	-4081
▁partners	-4082
▁Direct	-4083
▁occas	-4084
▁train	-4085
▁basis	-4086
▁See	-4087
▁understanding	-4088
▁Commun	-4089
oly	-4090
▁Uk	-4091
▁Cup	-4092
▁limit	-4093
▁surround	-4094
illing	-4095
BS	-4096
BA	-4097
▁accused	-4098
▁spl	-4099
▁hundreds	-4100
▁marriage	-4101
▁assum	-4102
orthern	-4103
▁neighbor	-4104
▁achieve	-4105
▁negative	-4106
▁incred	-4107
▁Tre	-4108
▁belief	-4109
OU	-4110
▁onto	-4111
▁Sanders	-4112
▁Cle	-4113
uries	-4114
▁easier	-4115
▁initial	-4116
▁frame	-4117
▁becomes	-4118
▁Fox	-4119
▁served	-4120
▁load	-4121
▁nine	-4122
ius	-4123
▁destroy	-4124
coming	-4125
▁der	-4126
ortunately	-4127
▁Windows	-4128
▁defe	-4129
▁ice	-4130
outhern	-4131
▁active	-4132
▁double	-4133
▁professional	-4134
PS	-4135
▁photo	-4136
▁Out	-4137
▁becoming	-4138
==	-4139
ario	-4140
▁Wil	-4141
▁miles	-4142
▁wealth	-4143
▁thus	-4144
▁Robert	-4145
▁bottom	-4146
icip	-4147
▁coal	-4148
well	-4149
▁Canadian	-4150
▁Pet	-4151
▁views	-4152
ears	-4153
▁church	-4154
▁Jeff	-4155
▁comfort	-4156
▁rat	-4157
▁mobile	-4158
▁management	-4159
▁bed	-4160
▁Both	-4161
▁separate	-4162
▁Bur	-4163
▁Jud	-4164
▁unlike	-4165
▁obtain	-4166
▁novel	-4167
▁Det	-4168
▁Photo	-4169
ios	-4170
▁Hall	-4171
▁location	-4172
▁resist	-4173
▁Thom	-4174
▁Prof	-4175
▁audience	-4176
▁instance	-4177
ference	-4178
▁Today	-4179
how	-4180
▁born	-4181
▁extremely	-4182
▁Britain	-4183
▁shared	-4184
▁internet	-4185
▁victory	-4186
▁labor	-4187
▁communities	-4188
▁marijuana	-4189
▁items	-4190
▁background	-4191
known	-4192
▁Frank	-4193
▁amb	-4194
▁documents	-4195
▁department	-4196
▁scientists	-4197
olf	-4198
▁strik	-4199
▁Mer	-4200
▁pet	-4201
▁Bank	-4202
▁species	-4203
▁THE	-4204
▁Ac	-4205
▁stick	-4206
▁Despite	-4207
▁sites	-4208
▁Carol	-4209
▁coverage	-4210
▁notice	-4211
▁controvers	-4212
▁solid	-4213
▁argument	-4214
▁doubt	-4215
▁explain	-4216
▁Institute	-4217
istics	-4218
▁Yet	-4219
bert	-4220
▁episode	-4221
▁legislation	-4222
▁existing	-4223
ander	-4224
▁returned	-4225
▁teach	-4226
▁80	-4227
▁ship	-4228
▁reduce	-4229
▁Mat	-4230
▁Vir	-4231
▁serve	-4232
▁harm	-4233
▁machine	-4234
la	-4235
▁Los	-4236
▁electric	-4237
▁competition	-4238
atically	-4239
inate	-4240
▁Miss	-4241
▁illegal	-4242
oom	-4243
▁notes	-4244
▁leadership	-4245
▁Jones	-4246
▁appeal	-4247
▁putting	-4248
rad	-4249
When	-4250
resp	-4251
▁90	-4252
▁Dec	-4253
azing	-4254
▁die	-4255
▁winning	-4256
▁conservative	-4257
▁Ken	-4258
▁Their	-4259
iful	-4260
▁structure	-4261
▁Fore	-4262
▁purpose	-4263
▁max	-4264
▁Microsoft	-4265
▁watching	-4266
▁committee	-4267
▁UN	-4268
▁Ver	-4269
▁victims	-4270
equ	-4271
ribute	-4272
ography	-4273
▁ran	-4274
▁Sil	-4275
▁Que	-4276
miss	-4277
▁purs	-4278
met	-4279
works	-4280
▁Israeli	-4281
iliar	-4282
▁driver	-4283
▁Inter	-4284
going	-4285
▁trend	-4286
▁issued	-4287
▁Tim	-4288
acity	-4289
▁Please	-4290
▁context	-4291
▁repeated	-4292
▁definitely	-4293
▁fresh	-4294
▁Jim	-4295
▁refere	-4296
▁Pak	-4297
gu	-4298
▁stated	-4299
▁floor	-4300
▁launched	-4301
▁worst	-4302
▁smaller	-4303
▁FBI	-4304
icy	-4305
-4	-4306
6]	-4307
▁drugs	-4308
house	-4309
▁faith	-4310
▁dangerous	-4311
GB	-4312
▁Afghan	-4313
▁older	-4314
semb	-4315
▁exerc	-4316
▁transfer	-4317
▁supporters	-4318
▁Cur	-4319
zen	-4320
▁hus	-4321
▁bomb	-4322
▁radio	-4323
inct	-4324
▁daughter	-4325
▁PC	-4326
▁;	-4327
▁suggested	-4328
▁Church	-4329
cont	-4330
▁Jewish	-4331
▁aspect	-4332
▁compar	-4333
▁Good	-4334
▁Leg	-4335
▁charged	-4336
▁consequ	-4337
▁vehicle	-4338
lands	-4339
▁spoke	-4340
▁closed	-4341
▁Who	-4342
▁traffic	-4343
▁nor	-4344
▁Sur	-4345
▁entirely	-4346
izes	-4347
▁finding	-4348
iller	-4349
▁north	-4350
▁direction	-4351
▁react	-4352
vention	-4353
▁hack	-4354
!”	-4355
:2	-4356
eg	-4357
▁Jo	-4358
▁surface	-4359
▁decade	-4360
iest	-4361
▁Ukrain	-4362
▁driving	-4363
andom	-4364
▁sun	-4365
scrib	-4366
▁task	-4367
▁Gree	-4368
NN	-4369
bing	-4370
▁phil	-4371
do	-4372
ctors	-4373
▁Const	-4374
OL	-4375
▁cards	-4376
▁truly	-4377
▁restaur	-4378
▁concerned	-4379
which	-4380
32	-4381
ception	-4382
▁Char	-4383
ulated	-4384
▁Ryan	-4385
▁blue	-4386
▁wel	-4387
▁hearing	-4388
▁activities	-4389
▁GOP	-4390
▁strength	-4391
annel	-4392
asy	-4393
andon	-4394
▁placed	-4395
gl	-4396
▁stock	-4397
but	-4398
tered	-4399
iling	-4400
▁requires	-4401
▁ded	-4402
▁telling	-4403
▁witness	-4404
azon	-4405
orrow	-4406
rey	-4407
▁commercial	-4408
udd	-4409
▁annual	-4410
▁plays	-4411
▁false	-4412
▁afford	-4413
▁decisions	-4414
ampionship	-4415
▁cells	-4416
▁transport	-4417
CC	-4418
▁unit	-4419
▁ge	-4420
▁please	-4421
phone	-4422
▁candidates	-4423
▁housing	-4424
ada	-4425
▁6.	-4426
overy	-4427
▁largely	-4428
▁caught	-4429
▁2008	-4430
▁grant	-4431
▁allowing	-4432
▁Back	-4433
rick	-4434
ossible	-4435
▁Team	-4436
▁san	-4437
75	-4438
ait	-4439
▁accur	-4440
▁animals	-4441
▁raise	-4442
▁Martin	-4443
▁businesses	-4444
itable	-4445
▁cash	-4446
PA	-4447
▁African	-4448
▁Sal	-4449
ulf	-4450
▁disease	-4451
▁generation	-4452
▁murder	-4453
▁Pakistan	-4454
▁tools	-4455
▁contain	-4456
▁Richard	-4457
cks	-4458
▁construction	-4459
▁tim	-4460
▁farm	-4461
osure	-4462
ocracy	-4463
▁supported	-4464
▁70	-4465
▁Mont	-4466
nel	-4467
▁mentioned	-4468
oshi	-4469
▁fuel	-4470
▁testing	-4471
anging	-4472
▁establish	-4473
▁rough	-4474
night	-4475
▁Africa	-4476
▁insurance	-4477
▁discovered	-4478
▁justice	-4479
▁Association	-4480
▁initi	-4481
▁waiting	-4482
For	-4483
▁2009	-4484
ancy	-4485
cknow	-4486
vant	-4487
▁planning	-4488
▁concern	-4489
▁Sup	-4490
▁recommend	-4491
▁Mexico	-4492
gers	-4493
▁scale	-4494
▁Kh	-4495
▁attend	-4496
▁believes	-4497
arant	-4498
kins	-4499
win	-4500
▁categ	-4501
:5	-4502
▁29	-4503
▁tells	-4504
▁missing	-4505
▁Government	-4506
NA	-4507
ici	-4508
oman	-4509
▁established	-4510
umn	-4511
▁banks	-4512
isation	-4513
▁discussion	-4514
▁bul	-4515
cient	-4516
▁gay	-4517
ibrary	-4518
▁refuge	-4519
oyal	-4520
azine	-4521
pective	-4522
▁conversation	-4523
▁removed	-4524
▁providing	-4525
rency	-4526
▁holding	-4527
bre	-4528
▁introduced	-4529
▁catch	-4530
▁Atlant	-4531
▁Ir	-4532
▁length	-4533
formation	-4534
▁Angeles	-4535
EM	-4536
▁Holl	-4537
▁Group	-4538
▁Android	-4539
▁assess	-4540
▁presence	-4541
▁Fire	-4542
▁strateg	-4543
▁Fe	-4544
8]	-4545
▁CEO	-4546
cript	-4547
7]	-4548
▁deliver	-4549
▁Research	-4550
bour	-4551
▁update	-4552
anda	-4553
▁Time	-4554
▁prefer	-4555
kin	-4556
▁guess	-4557
▁exclus	-4558
▁Nor	-4559
▁spokesman	-4560
▁offensive	-4561
▁hasn	-4562
▁Louis	-4563
ST	-4564
▁skills	-4565
oted	-4566
▁Palestin	-4567
▁sports	-4568
▁Japanese	-4569
icles	-4570
▁appropri	-4571
rig	-4572
ava	-4573
▁abuse	-4574
onto	-4575
▁Joe	-4576
Don	-4577
▁south	-4578
▁https	-4579
icon	-4580
▁joined	-4581
▁none	-4582
ications	-4583
▁enforcement	-4584
▁Bern	-4585
▁feels	-4586
▁operation	-4587
▁tweet	-4588
="	-4589
ading	-4590
▁occup	-4591
▁cancer	-4592
▁therefore	-4593
▁kid	-4594
▁homes	-4595
itutional	-4596
▁00	-4597
▁detect	-4598
what	-4599
▁eat	-4600
▁sequ	-4601
▁files	-4602
enses	-4603
▁seconds	-4604
▁fant	-4605
itz	-4606
ication	-4607
▁models	-4608
▁Thomas	-4609
outs	-4610
▁Jose	-4611
▁Jon	-4612
▁injury	-4613
▁conflict	-4614
▁otherwise	-4615
hem	-4616
▁Mary	-4617
▁35	-4618
▁stopped	-4619
▁collection	-4620
▁Web	-4621
ula	-4622
▁funds	-4623
ady	-4624
▁obvious	-4625
▁measures	-4626
▁newsp	-4627
▁figures	-4628
onym	-4629
inter	-4630
▁interests	-4631
▁click	-4632
▁acknow	-4633
ulate	-4634
▁finished	-4635
▁managed	-4636
▁download	-4637
▁Rem	-4638
▁MP	-4639
season	-4640
▁girls	-4641
RA	-4642
▁Put	-4643
▁Den	-4644
▁Rock	-4645
▁useful	-4646
lig	-4647
oms	-4648
spe	-4649
owl	-4650
verse	-4651
▁identified	-4652
▁Virgin	-4653
▁arrived	-4654
▁keeping	-4655
▁suggests	-4656
▁ST	-4657
▁spirit	-4658
▁struct	-4659
ooking	-4660
ups	-4661
▁fourth	-4662
rd	-4663
wing	-4664
▁slightly	-4665
▁relatively	-4666
▁partner	-4667
▁circum	-4668
▁husband	-4669
▁mental	-4670
▁roll	-4671
▁hair	-4672
▁setting	-4673
odies	-4674
adium	-4675
▁Prime	-4676
ga	-4677
▁micro	-4678
vered	-4679
▁mig	-4680
real	-4681
▁conclud	-4682
▁transl	-4683
▁failure	-4684
apped	-4685
ronic	-4686
ighter	-4687
dden	-4688
agn	-4689
▁Social	-4690
stream	-4691
▁wish	-4692
▁tough	-4693
▁veter	-4694
▁elements	-4695
▁committed	-4696
▁killing	-4697
▁owner	-4698
▁focused	-4699
uters	-4700
▁dat	-4701
SP	-4702
▁depend	-4703
▁defensive	-4704
eless	-4705
place	-4706
iser	-4707
▁remind	-4708
OD	-4709
▁starts	-4710
▁weak	-4711
▁happening	-4712
▁connection	-4713
▁protection	-4714
▁Mos	-4715
▁Army	-4716
▁immigration	-4717
▁exchange	-4718
▁Camp	-4719
eah	-4720
uate	-4721
▁earth	-4722
▁strike	-4723
▁steps	-4724
▁Supreme	-4725
▁trip	-4726
Sat	-4727
igan	-4728
lor	-4729
▁scientific	-4730
:00	-4731
ils	-4732
▁corner	-4733
aven	-4734
▁planned	-4735
uct	-4736
▁army	-4737
▁7.	-4738
▁fle	-4739
▁supply	-4740
▁beer	-4741
▁aggress	-4742
▁commission	-4743
▁philos	-4744
▁vir	-4745
▁organizations	-4746
isf	-4747
▁mere	-4748
▁familiar	-4749
▁//	-4750
▁Sol	-4751
▁photos	-4752
makers	-4753
▁identity	-4754
HL	-4755
▁sides	-4756
▁gain	-4757
▁bigger	-4758
uke	-4759
awn	-4760
gar	-4761
prof	-4762
▁Secretary	-4763
▁sudden	-4764
▁spect	-4765
▁alternative	-4766
▁regist	-4767
▁thanks	-4768
▁academ	-4769
▁Jes	-4770
▁gender	-4771
ucky	-4772
▁hate	-4773
▁guard	-4774
gn	-4775
hens	-4776
▁script	-4777
mas	-4778
rees	-4779
Is	-4780
▁appoint	-4781
▁Ari	-4782
▁speaking	-4783
▁standing	-4784
hi	-4785
9]	-4786
cious	-4787
icide	-4788
▁Prot	-4789
▁environmental	-4790
▁union	-4791
▁Mars	-4792
▁multi	-4793
▁Bet	-4794
▁batter	-4795
agues	-4796
iot	-4797
▁helping	-4798
▁que	-4799
ka	-4800
▁32	-4801
▁decide	-4802
▁survey	-4803
▁votes	-4804
▁Mean	-4805
▁award	-4806
▁taxes	-4807
▁carried	-4808
ocal	-4809
▁$3	-4810
▁Bob	-4811
▁revolution	-4812
▁accounts	-4813
▁Peter	-4814
▁window	-4815
▁neighborhood	-4816
No	-4817
erous	-4818
imal	-4819
ores	-4820
hedul	-4821
▁twice	-4822
▁experts	-4823
▁Rub	-4824
▁fellow	-4825
▁Syrian	-4826
▁Middle	-4827
▁interact	-4828
▁District	-4829
▁Cru	-4830
▁Toronto	-4831
▁Amazon	-4832
ancing	-4833
▁Mass	-4834
▁Plan	-4835
upp	-4836
▁194	-4837
▁balance	-4838
▁losing	-4839
▁talks	-4840
▁Public	-4841
:4	-4842
▁lived	-4843
stein	-4844
▁filed	-4845
oston	-4846
▁standards	-4847
▁impossible	-4848
with	-4849
▁cuts	-4850
▁appre	-4851
ania	-4852
▁innov	-4853
▁Bitcoin	-4854
▁markets	-4855
▁tests	-4856
▁vul	-4857
▁variety	-4858
▁degree	-4859
▁agencies	-4860
range	-4861
▁Foundation	-4862
▁tack	-4863
▁princ	-4864
TC	-4865
▁mut	-4866
ipping	-4867
▁College	-4868
▁univers	-4869
▁religion	-4870
!"	-4871
▁195	-4872
▁rich	-4873
ynam	-4874
▁apart	-4875
▁sch	-4876
ansion	-4877
▁humans	-4878
▁apparently	-4879
▁sust	-4880
▁Mel	-4881
▁IN	-4882
▁expensive	-4883
▁developing	-4884
.[2	-4885
▁planet	-4886
▁developers	-4887
▁soldiers	-4888
run	-4889
▁colle	-4890
▁Carolina	-4891
uration	-4892
▁dropped	-4893
▁territ	-4894
▁domestic	-4895
▁possibly	-4896
65	-4897
▁AN	-4898
:3	-4899
gypt	-4900
▁vast	-4901
▁crew	-4902
▁unless	-4903
▁absolutely	-4904
acks	-4905
▁Open	-4906
▁apply	-4907
▁amazing	-4908
▁Lee	-4909
▁pair	-4910
pm	-4911
▁units	-4912
aded	-4913
roud	-4914
▁(19	-4915
aine	-4916
▁Before	-4917
▁professor	-4918
aren	-4919
▁Service	-4920
▁cold	-4921
▁Second	-4922
arks	-4923
▁closer	-4924
▁authority	-4925
▁Media	-4926
▁sea	-4927
▁tast	-4928
ano	-4929
lets	-4930
▁ultimately	-4931
Americ	-4932
▁Ms	-4933
▁elim	-4934
▁clim	-4935
▁possibility	-4936
▁operating	-4937
▁Mur	-4938
▁turns	-4939
illa	-4940
fe	-4941
▁honest	-4942
▁increasingly	-4943
:0.	-4944
hicles	-4945
▁Chief	-4946
Sh	-4947
ocol	-4948
▁paying	-4949
▁seeking	-4950
vis	-4951
ashed	-4952
▁arms	-4953
▁lob	-4954
▁flight	-4955
▁Central	-4956
▁heat	-4957
▁Steve	-4958
▁sounds	-4959
rastructure	-4960
pire	-4961
▁Images	-4962
▁Cath	-4963
apers	-4964
▁(3	-4965
▁presented	-4966
▁Top	-4967
▁animal	-4968
▁changing	-4969
▁internal	-4970
▁USA	-4971
▁deploy	-4972
▁responsibility	-4973
▁beautiful	-4974
▁fol	-4975
ola	-4976
under	-4977
och	-4978
IM	-4979
▁university	-4980
▁error	-4981
icted	-4982
ortion	-4983
▁solar	-4984
▁yards	-4985
5%	-4986
related	-4987
▁imagine	-4988
▁Dan	-4989
▁trail	-4990
▁PM	-4991
ht	-4992
▁server	-4993
▁healthy	-4994
coh	-4995
▁convention	-4996
▁ath	-4997
▁Francisco	-4998
ruit	-4999
▁adjust	-5000
▁writer	-5001
▁Whe	-5002
isted	-5003
Satoshi	-5004
▁covered	-5005
▁hyp	-5006
▁equip	-5007
▁worry	-5008
▁methods	-5009
▁Though	-5010
▁schedul	-5011
rible	-5012
▁clot	-5013
▁pil	-5014
▁Gal	-5015
state	-5016
atures	-5017
▁gar	-5018
▁odd	-5019
▁regarding	-5020
▁corporate	-5021
▁earn	-5022
▁Federal	-5023
▁applications	-5024
▁Paris	-5025
phas	-5026
▁pit	-5027
▁3,	-5028
▁capacity	-5029
▁Journal	-5030
osen	-5031
itect	-5032
▁Only	-5033
▁RE	-5034
▁skin	-5035
▁Lat	-5036
▁sitting	-5037
--------	-5038
▁Guard	-5039
▁Sum	-5040
anche	-5041
ym	-5042
▁stress	-5043
oving	-5044
:30	-5045
▁pieces	-5046
▁conclus	-5047
ologies	-5048
▁Free	-5049
▁Nov	-5050
▁Boston	-5051
sen	-5052
▁Watch	-5053
▁famous	-5054
▁Egypt	-5055
▁tight	-5056
▁2000	-5057
▁occurred	-5058
▁fired	-5059
▁Color	-5060
cel	-5061
▁specifically	-5062
▁baby	-5063
▁Still	-5064
mail	-5065
▁plenty	-5066
▁surprise	-5067
▁streets	-5068
▁Mem	-5069
▁flow	-5070
▁guarant	-5071
hand	-5072
alls	-5073
▁Spr	-5074
▁broken	-5075
▁troops	-5076
▁attorney	-5077
▁estimated	-5078
▁vision	-5079
▁Book	-5080
ressive	-5081
()	-5082
idden	-5083
▁sport	-5084
▁significantly	-5085
▁Each	-5086
CH	-5087
▁forms	-5088
person	-5089
rie	-5090
▁prepared	-5091
DP	-5092
▁proposal	-5093
IP	-5094
▁sector	-5095
▁instit	-5096
▁determine	-5097
▁rid	-5098
useum	-5099
▁seasons	-5100
▁prove	-5101
▁symb	-5102
terday	-5103
▁refused	-5104
▁fif	-5105
▁Sing	-5106
▁cultural	-5107
pret	-5108
00,000	-5109
uster	-5110
▁prime	-5111
▁elections	-5112
▁Ok	-5113
porary	-5114
▁bringing	-5115
▁intended	-5116
col	-5117
▁Sign	-5118
▁Sant	-5119
▁vehicles	-5120
▁boost	-5121
▁Matt	-5122
▁prosecut	-5123
▁shall	-5124
▁equal	-5125
▁weapon	-5126
▁Conserv	-5127
▁jail	-5128
▁Hist	-5129
▁factors	-5130
▁faster	-5131
▁potentially	-5132
endment	-5133
▁selling	-5134
▁combat	-5135
▁Haw	-5136
▁elected	-5137
pay	-5138
olit	-5139
▁conducted	-5140
oty	-5141
▁surve	-5142
▁Williams	-5143
▁helps	-5144
▁Andrew	-5145
▁vulner	-5146
▁regime	-5147
▁retail	-5148
▁breat	-5149
▁remove	-5150
▁teen	-5151
▁challenges	-5152
▁Pac	-5153
▁expert	-5154
orage	-5155
eder	-5156
ey	-5157
▁NAS	-5158
ocking	-5159
enced	-5160
▁Australian	-5161
▁secure	-5162
▁era	-5163
ss	-5164
▁nar	-5165
▁master	-5166
▁Road	-5167
▁Charl	-5168
▁Space	-5169
▁switch	-5170
▁Ro	-5171
noon	-5172
▁expressed	-5173
rog	-5174
▁remained	-5175
▁sale	-5176
ION	-5177
▁rapid	-5178
▁Virginia	-5179
▁chemical	-5180
▁Medic	-5181
cean	-5182
▁heav	-5183
LE	-5184
inating	-5185
ureau	-5186
▁River	-5187
▁marg	-5188
▁youth	-5189
▁Island	-5190
isher	-5191
▁council	-5192
OW	-5193
▁Jackson	-5194
▁tele	-5195
war	-5196
reens	-5197
eds	-5198
64	-5199
▁broke	-5200
▁Meanwhile	-5201
▁Project	-5202
▁spring	-5203
▁consult	-5204
ini	-5205
▁Tra	-5206
▁Kim	-5207
▁clin	-5208
yr	-5209
▁Hol	-5210
▁random	-5211
▁8.	-5212
▁trig	-5213
▁ruling	-5214
▁Down	-5215
▁dram	-5216
▁located	-5217
CA	-5218
▁shape	-5219
▁aircraft	-5220
▁infrastructure	-5221
▁equipment	-5222
▁handle	-5223
▁greatest	-5224
▁governments	-5225
▁contrast	-5226
lo	-5227
▁pointed	-5228
IV	-5229
▁carbon	-5230
▁appearance	-5231
ENT	-5232
▁signs	-5233
▁GM	-5234
▁voted	-5235
ashion	-5236
▁experiment	-5237
issions	-5238
▁reduced	-5239
▁thr	-5240
▁indeed	-5241
ader	-5242
▁Dou	-5243
▁2015,	-5244
▁Force	-5245
▁offering	-5246
▁weren	-5247
▁ton	-5248
,'	-5249
onom	-5250
olved	-5251
▁percentage	-5252
etic	-5253
▁stret	-5254
▁affected	-5255
ours	-5256
ean	-5257
▁din	-5258
▁2014,	-5259
▁Human	-5260
▁surprising	-5261
rier	-5262
▁grew	-5263
▁purchase	-5264
abled	-5265
▁thank	-5266
▁emergency	-5267
▁herself	-5268
▁Power	-5269
▁Wal	-5270
▁originally	-5271
▁Phot	-5272
▁determined	-5273
arp	-5274
▁ends	-5275
ensions	-5276
▁differences	-5277
/20	-5278
▁shift	-5279
▁Av	-5280
▁Work	-5281
▁BBC	-5282
pired	-5283
▁obviously	-5284
▁combined	-5285
▁Rad	-5286
▁Show	-5287
▁Saud	-5288
▁finish	-5289
▁supporting	-5290
xual	-5291
▁Labour	-5292
▁wearing	-5293
▁stars	-5294
▁appreci	-5295
▁tact	-5296
▁politicians	-5297
▁remaining	-5298
▁Ma	-5299
▁hun	-5300
▁involve	-5301
plom	-5302
▁bought	-5303
▁experienced	-5304
My	-5305
▁pulled	-5306
lyn	-5307
TM	-5308
▁talked	-5309
ller	-5310
ownt	-5311
▁Bus	-5312
Re	-5313
▁cas	-5314
▁films	-5315
▁Jul	-5316
▁id	-5317
▁enemy	-5318
▁Best	-5319
▁bound	-5320
▁Director	-5321
▁rent	-5322
▁facing	-5323
▁considering	-5324
▁10.	-5325
▁listen	-5326
▁positions	-5327
standing	-5328
▁excited	-5329
▁videos	-5330
▁agent	-5331
lymp	-5332
▁45	-5333
▁tourn	-5334
▁accident	-5335
Tr	-5336
pet	-5337
▁Vict	-5338
▁subs	-5339
▁recorded	-5340
ucks	-5341
gment	-5342
▁completed	-5343
▁minute	-5344
road	-5345
▁afternoon	-5346
PD	-5347
▁mort	-5348
▁proced	-5349
▁package	-5350
▁ID	-5351
▁opportunities	-5352
cohol	-5353
▁visual	-5354
▁Maybe	-5355
▁writes	-5356
▁Daily	-5357
aped	-5358
▁revenue	-5359
▁basically	-5360
osite	-5361
22	-5362
aling	-5363
▁hopes	-5364
▁plus	-5365
▁argued	-5366
▁opposed	-5367
▁leads	-5368
▁aid	-5369
▁panel	-5370
ita	-5371
▁powers	-5372
▁passing	-5373
▁consumers	-5374
▁seat	-5375
▁iPh	-5376
▁tradition	-5377
▁wood	-5378
▁Squ	-5379
nell	-5380
▁struggle	-5381
▁Sher	-5382
▁batt	-5383
▁construct	-5384
▁sac	-5385
▁motiv	-5386
1)	-5387
▁voting	-5388
▁upgr	-5389
ighters	-5390
▁Rod	-5391
essions	-5392
▁identify	-5393
▁prospect	-5394
▁Develop	-5395
▁Techn	-5396
▁dim	-5397
▁Grand	-5398
▁distance	-5399
▁lots	-5400
▁optim	-5401
ogue	-5402
▁storm	-5403
mm	-5404
asp	-5405
▁moral	-5406
▁(20	-5407
▁observ	-5408
▁hurt	-5409
▁Where	-5410
ato	-5411
aints	-5412
▁Science	-5413
▁element	-5414
▁diss	-5415
▁belong	-5416
apping	-5417
▁Afghanistan	-5418
▁frust	-5419
li	-5420
▁bodies	-5421
▁evening	-5422
oking	-5423
▁widely	-5424
that	-5425
▁factor	-5426
uts	-5427
▁Turkey	-5428
▁Supp	-5429
amm	-5430
▁explo	-5431
▁advert	-5432
respond	-5433
▁Olymp	-5434
▁zone	-5435
▁depart	-5436
▁Ill	-5437
anged	-5438
▁cart	-5439
▁Note	-5440
▁Right	-5441
▁Somet	-5442
▁instruct	-5443
So	-5444
▁Ron	-5445
▁apps	-5446
▁quiet	-5447
▁minimum	-5448
ternal	-5449
▁turning	-5450
▁denied	-5451
▁liberal	-5452
▁calcul	-5453
▁ML	-5454
hab	-5455
mes	-5456
▁tun	-5457
▁About	-5458
▁ast	-5459
ruption	-5460
▁ordered	-5461
▁glass	-5462
▁Ire	-5463
▁CNN	-5464
▁advance	-5465
▁grab	-5466
▁Its	-5467
adow	-5468
▁Wood	-5469
▁pages	-5470
▁System	-5471
aled	-5472
▁Gen	-5473
ishes	-5474
lines	-5475
care	-5476
▁Far	-5477
▁experiences	-5478
class	-5479
sts	-5480
▁Hy	-5481
▁dismiss	-5482
▁flag	-5483
ache	-5484
-20	-5485
▁creation	-5486
▁suppl	-5487
▁Penn	-5488
▁disappoint	-5489
▁Rev	-5490
▁auth	-5491
▁approved	-5492
▁Gar	-5493
razy	-5494
apter	-5495
▁sad	-5496
▁coord	-5497
▁31	-5498
▁reference	-5499
idel	-5500
life	-5501
abilities	-5502
▁explos	-5503
zer	-5504
ket	-5505
▁1990	-5506
▁valid	-5507
▁Braz	-5508
▁Again	-5509
▁privacy	-5510
▁seriously	-5511
▁mode	-5512
odd	-5513
▁collabor	-5514
▁confidence	-5515
ributed	-5516
▁Fer	-5517
▁treated	-5518
rawn	-5519
Get	-5520
top	-5521
▁AD	-5522
▁attempts	-5523
▁(4	-5524
▁sam	-5525
▁Life	-5526
▁unable	-5527
UT	-5528
▁2013,	-5529
rist	-5530
▁craft	-5531
▁entertain	-5532
▁reporting	-5533
▁Ol	-5534
▁movies	-5535
▁discl	-5536
▁forget	-5537
▁Seattle	-5538
ompl	-5539
▁shouldn	-5540
▁giant	-5541
isters	-5542
▁numerous	-5543
raud	-5544
▁readers	-5545
▁Stan	-5546
▁coff	-5547
▁typically	-5548
ivered	-5549
▁pitch	-5550
▁plants	-5551
▁reporters	-5552
fere	-5553
▁messages	-5554
rum	-5555
▁coast	-5556
▁responded	-5557
hered	-5558
oken	-5559
▁suffered	-5560
▁burn	-5561
▁Scot	-5562
▁suit	-5563
▁stands	-5564
▁copyright	-5565
PR	-5566
▁Week	-5567
▁default	-5568
▁pictures	-5569
▁emphas	-5570
mosp	-5571
ellow	-5572
▁Thank	-5573
▁injured	-5574
oves	-5575
▁Carl	-5576
-5	-5577
estival	-5578
▁ongoing	-5579
host	-5580
▁concent	-5581
▁rot	-5582
▁Dani	-5583
inent	-5584
▁matters	-5585
▁capable	-5586
mond	-5587
▁proud	-5588
▁Columb	-5589
▁guns	-5590
▁proceed	-5591
▁institutions	-5592
▁pray	-5593
▁faces	-5594
24	-5595
▁trouble	-5596
▁publicly	-5597
CL	-5598
▁cooper	-5599
▁caption	-5600
IG	-5601
▁Cub	-5602
▁advice	-5603
85	-5604
elly	-5605
▁edge	-5606
▁cloud	-5607
abin	-5608
pass	-5609
▁ment	-5610
▁Thanks	-5611
▁Mount	-5612
▁renew	-5613
▁perman	-5614
▁severe	-5615
▁dial	-5616
▁reaction	-5617
▁2007	-5618
▁Lin	-5619
▁explains	-5620
▁walking	-5621
esters	-5622
▁delay	-5623
vin	-5624
▁Jews	-5625
▁crimes	-5626
▁substant	-5627
▁Ann	-5628
▁prin	-5629
▁approx	-5630
obe	-5631
▁drivers	-5632
▁reportedly	-5633
33	-5634
▁perspective	-5635
cos	-5636
▁Er	-5637
▁bull	-5638
1/	-5639
▁explan	-5640
▁declared	-5641
▁hol	-5642
ulations	-5643
▁lit	-5644
▁updates	-5645
can	-5646
▁sets	-5647
▁legit	-5648
▁prompt	-5649
▁gather	-5650
▁buildings	-5651
▁forg	-5652
▁Muslims	-5653
▁discrim	-5654
▁married	-5655
▁exercise	-5656
▁thoughts	-5657
▁gra	-5658
▁violent	-5659
▁technical	-5660
▁appropriate	-5661
iat	-5662
▁accompl	-5663
▁broadcast	-5664
New	-5665
▁argue	-5666
▁Home	-5667
▁debut	-5668
oral	-5669
▁circumst	-5670
▁Ohio	-5671
▁ourselves	-5672
abb	-5673
free	-5674
▁flo	-5675
▁admitted	-5676
▁statements	-5677
▁thinks	-5678
▁declined	-5679
▁satisf	-5680
▁Lib	-5681
▁Long	-5682
uls	-5683
uations	-5684
▁Ireland	-5685
▁connected	-5686
,’	-5687
▁mal	-5688
▁materials	-5689
▁picked	-5690
▁Elect	-5691
▁newspaper	-5692
nergy	-5693
▁mand	-5694
▁2012,	-5695
▁loved	-5696
▁patient	-5697
▁initially	-5698
▁diplom	-5699
▁contains	-5700
▁findings	-5701
▁Ukraine	-5702
▁terrorist	-5703
▁500	-5704
▁confirm	-5705
DA	-5706
▁PR	-5707
▁van	-5708
▁Michigan	-5709
▁eval	-5710
▁Walk	-5711
evin	-5712
▁talent	-5713
▁essentially	-5714
▁Aff	-5715
▁Romney	-5716
▁Christmas	-5717
TV	-5718
▁expansion	-5719
long	-5720
▁confident	-5721
▁transition	-5722
icing	-5723
employ	-5724
▁Hou	-5725
▁excell	-5726
enture	-5727
▁realize	-5728
▁tree	-5729
astern	-5730
▁DC	-5731
▁Hel	-5732
▁quant	-5733
▁centre	-5734
▁editor	-5735
▁brows	-5736
uous	-5737
resents	-5738
amental	-5739
▁leaves	-5740
▁rail	-5741
▁Year	-5742
ilit	-5743
ionally	-5744
▁causes	-5745
orse	-5746
▁weather	-5747
orders	-5748
unction	-5749
▁delivered	-5750
unte	-5751
▁Four	-5752
ampion	-5753
acking	-5754
▁armed	-5755
▁pure	-5756
▁filled	-5757
acter	-5758
▁session	-5759
▁mir	-5760
tion	-5761
▁Sov	-5762
▁practices	-5763
▁missed	-5764
Tube	-5765
▁Ram	-5766
▁View	-5767
▁objects	-5768
mates	-5769
▁route	-5770
▁announcement	-5771
called	-5772
▁incor	-5773
ilty	-5774
▁Swed	-5775
gent	-5776
▁emails	-5777
cons	-5778
▁faced	-5779
▁franch	-5780
▁$5	-5781
▁pool	-5782
▁examples	-5783
ador	-5784
▁Card	-5785
▁Cat	-5786
▁hell	-5787
▁activists	-5788
▁Korean	-5789
▁governor	-5790
ooth	-5791
ounded	-5792
angers	-5793
▁2016,	-5794
▁effectively	-5795
▁warned	-5796
▁nations	-5797
▁criticism	-5798
▁resolution	-5799
▁consequences	-5800
edy	-5801
▁iPhone	-5802
▁Further	-5803
▁Enter	-5804
▁accepted	-5805
An	-5806
▁artist	-5807
▁Saudi	-5808
enda	-5809
▁rain	-5810
▁alt	-5811
▁fly	-5812
▁resident	-5813
ml	-5814
rid	-5815
agers	-5816
▁Next	-5817
dule	-5818
▁Hen	-5819
▁desire	-5820
▁spons	-5821
▁plane	-5822
▁Colorado	-5823
▁secretary	-5824
orry	-5825
ala	-5826
▁transform	-5827
-8	-5828
date	-5829
▁Davis	-5830
▁Wik	-5831
▁sav	-5832
▁AL	-5833
▁Brazil	-5834
▁abandon	-5835
▁quarterback	-5836
asure	-5837
esome	-5838
▁Fig	-5839
▁facts	-5840
esh	-5841
▁vari	-5842
▁wear	-5843
▁decre	-5844
▁label	-5845
▁4,	-5846
uild	-5847
▁Di	-5848
▁Econom	-5849
▁shop	-5850
enger	-5851
▁Ariz	-5852
▁magazine	-5853
aza	-5854
def	-5855
▁datab	-5856
▁agents	-5857
▁Cy	-5858
▁democracy	-5859
▁philosop	-5860
▁lawyer	-5861
▁architect	-5862
▁performed	-5863
water	-5864
▁Prem	-5865
▁config	-5866
▁nearby	-5867
ourney	-5868
comm	-5869
▁historical	-5870
▁Vol	-5871
▁totally	-5872
arters	-5873
▁receiving	-5874
▁cann	-5875
▁yesterday	-5876
▁evolution	-5877
▁dynam	-5878
▁necessarily	-5879
▁radical	-5880
dis	-5881
▁follows	-5882
fortunately	-5883
▁graph	-5884
▁advanced	-5885
On	-5886
▁fish	-5887
▁offense	-5888
▁represents	-5889
duc	-5890
sembly	-5891
▁articles	-5892
usal	-5893
▁Blue	-5894
▁joint	-5895
▁allegations	-5896
▁enh	-5897
urning	-5898
essor	-5899
▁boys	-5900
▁Barack	-5901
▁applied	-5902
gia	-5903
▁rising	-5904
▁consistent	-5905
▁increases	-5906
▁Max	-5907
▁suc	-5908
ship	-5909
▁Women	-5910
▁improved	-5911
▁discussed	-5912
▁Polit	-5913
ansas	-5914
▁Cruz	-5915
athan	-5916
▁ske	-5917
▁Brook	-5918
▁cook	-5919
▁correspond	-5920
▁doctor	-5921
MA	-5922
▁Inf	-5923
▁contest	-5924
▁injuries	-5925
▁Cop	-5926
▁Sar	-5927
▁Die	-5928
▁motor	-5929
▁neither	-5930
▁listed	-5931
▁withd	-5932
▁linked	-5933
▁moves	-5934
▁everybody	-5935
▁subsequ	-5936
edia	-5937
▁Perhaps	-5938
▁Boy	-5939
▁Eric	-5940
▁bond	-5941
▁playoff	-5942
▁Sky	-5943
▁sought	-5944
,[	-5945
▁Gra	-5946
▁native	-5947
▁Men	-5948
ocket	-5949
illance	-5950
▁interpret	-5951
▁Exp	-5952
▁pra	-5953
▁Aut	-5954
level	-5955
rip	-5956
▁protests	-5957
whel	-5958
▁NBA	-5959
▁myster	-5960
▁Club	-5961
▁replaced	-5962
▁alcohol	-5963
ERS	-5964
▁bare	-5965
▁manufacture	-5966
▁input	-5967
95	-5968
irty	-5969
otic	-5970
▁consumer	-5971
▁existence	-5972
▁entered	-5973
Le	-5974
▁laugh	-5975
▁functions	-5976
▁begins	-5977
gs	-5978
▁stood	-5979
dit	-5980
▁campus	-5981
▁remark	-5982
▁Contin	-5983
▁Sports	-5984
irds	-5985
▁Ell	-5986
▁Div	-5987
▁athlet	-5988
▁pushed	-5989
▁investors	-5990
▁emotional	-5991
Im	-5992
▁lawsuit	-5993
▁scheduled	-5994
2)	-5995
▁fill	-5996
▁lock	-5997
law	-5998
▁surprised	-5999
▁younger	-6000
▁colleagues	-6001
▁ISIS	-6002
▁$4	-6003
▁rum	-6004
▁warm	-6005
▁anywhere	-6006
▁Child	-6007
▁brings	-6008
▁button	-6009
▁combination	-6010
omin	-6011
▁resc	-6012
▁atmosp	-6013
▁warning	-6014
hetic	-6015
▁tech	-6016
inals	-6017
▁lie	-6018
▁split	-6019
▁threats	-6020
ideo	-6021
▁YouTube	-6022
▁restaurant	-6023
utch	-6024
▁Rights	-6025
acle	-6026
anish	-6027
ywood	-6028
▁trib	-6029
west	-6030
▁ride	-6031
▁entry	-6032
▁roughly	-6033
▁subscrib	-6034
▁distribution	-6035
▁phen	-6036
▁chart	-6037
▁rein	-6038
illy	-6039
▁prohib	-6040
icious	-6041
iner	-6042
▁1980	-6043
▁plot	-6044
▁creative	-6045
▁Wild	-6046
word	-6047
▁empt	-6048
ette	-6049
▁scr	-6050
▁flat	-6051
▁Board	-6052
▁island	-6053
▁Lake	-6054
▁Asia	-6055
▁Kevin	-6056
▁schol	-6057
▁Houston	-6058
▁importance	-6059
100	-6060
▁Fil	-6061
erry	-6062
ican	-6063
▁Defense	-6064
▁fort	-6065
▁heads	-6066
▁temperature	-6067
▁fairly	-6068
▁harder	-6069
oked	-6070
▁Games	-6071
▁scored	-6072
▁shots	-6073
ocratic	-6074
▁promise	-6075
▁AT	-6076
▁Author	-6077
▁Ins	-6078
▁bright	-6079
chen	-6080
▁Fam	-6081
▁shif	-6082
cho	-6083
▁behavi	-6084
▁household	-6085
▁holds	-6086
▁classes	-6087
▁returns	-6088
stood	-6089
▁Tal	-6090
▁bag	-6091
▁defined	-6092
▁opponent	-6093
rich	-6094
▁skill	-6095
▁Tay	-6096
▁Old	-6097
▁bike	-6098
▁authors	-6099
▁Putin	-6100
▁parliament	-6101
ena	-6102
▁flood	-6103
▁buying	-6104
▁metal	-6105
▁unlikely	-6106
▁classic	-6107
▁favour	-6108
▁highlight	-6109
alty	-6110
ician	-6111
▁output	-6112
▁succeed	-6113
▁storage	-6114
▁participants	-6115
▁deleg	-6116
▁client	-6117
▁tow	-6118
▁heavily	-6119
▁square	-6120
▁af	-6121
▁guilty	-6122
iques	-6123
▁33	-6124
▁subm	-6125
▁expression	-6126
▁nav	-6127
▁adds	-6128
▁wave	-6129
▁Three	-6130
name	-6131
▁isol	-6132
▁snow	-6133
▁songs	-6134
▁syn	-6135
▁ing	-6136
burg	-6137
▁kinds	-6138
▁experim	-6139
▁immediate	-6140
▁chain	-6141
▁illust	-6142
▁Arizona	-6143
SS	-6144
▁versions	-6145
▁deaths	-6146
▁IP	-6147
▁hardware	-6148
▁relevant	-6149
▁row	-6150
style	-6151
▁motion	-6152
▁symbol	-6153
▁links	-6154
▁manage	-6155
!!	-6156
▁Take	-6157
onna	-6158
▁hat	-6159
andal	-6160
▁fasc	-6161
▁essential	-6162
IR	-6163
▁tom	-6164
arden	-6165
▁NASA	-6166
▁Young	-6167
▁hoping	-6168
▁\	-6169
How	-6170
▁networks	-6171
▁Van	-6172
▁stores	-6173
va	-6174
▁cheap	-6175
▁facility	-6176
▁sym	-6177
▁somewhat	-6178
▁sem	-6179
▁library	-6180
PU	-6181
chers	-6182
▁Charles	-6183
▁doctors	-6184
roit	-6185
▁adults	-6186
▁division	-6187
▁opposite	-6188
▁downt	-6189
▁Energy	-6190
▁NY	-6191
▁Cast	-6192
▁manner	-6193
▁targets	-6194
acked	-6195
itors	-6196
▁sees	-6197
certain	-6198
▁zero	-6199
▁currency	-6200
olve	-6201
▁Mic	-6202
atell	-6203
86	-6204
efully	-6205
ographic	-6206
To	-6207
▁waste	-6208
▁extent	-6209
▁string	-6210
▁closely	-6211
▁breaking	-6212
twitter	-6213
▁ped	-6214
▁Catholic	-6215
born	-6216
▁blow	-6217
inem	-6218
▁36	-6219
▁column	-6220
ko	-6221
esc	-6222
▁kit	-6223
▁Ital	-6224
▁mine	-6225
▁unus	-6226
avor	-6227
▁rape	-6228
▁rally	-6229
▁sick	-6230
▁fewer	-6231
▁immigrants	-6232
▁9.	-6233
▁acts	-6234
▁fashion	-6235
uzz	-6236
▁Id	-6237
▁crazy	-6238
▁allegedly	-6239
▁Wat	-6240
▁Dev	-6241
▁fundamental	-6242
AY	-6243
▁Valley	-6244
▁competitive	-6245
▁fraud	-6246
ellect	-6247
greg	-6248
ologist	-6249
▁pushing	-6250
tle	-6251
▁customer	-6252
▁Bas	-6253
▁Ret	-6254
▁Mot	-6255
▁marketing	-6256
▁Pan	-6257
▁describe	-6258
',	-6259
nic	-6260
▁confront	-6261
▁acknowled	-6262
▁circumstances	-6263
▁industrial	-6264
All	-6265
▁moments	-6266
▁pregn	-6267
▁Wilson	-6268
▁intention	-6269
▁mainstream	-6270
▁featured	-6271
▁Soviet	-6272
▁decline	-6273
▁grown	-6274
agan	-6275
▁vice	-6276
ensus	-6277
▁formed	-6278
print	-6279
▁Palestinian	-6280
▁Jesus	-6281
▁Stephen	-6282
▁detailed	-6283
▁Finally	-6284
ads	-6285
▁attempted	-6286
▁regulations	-6287
▁repeatedly	-6288
TA	-6289
rations	-6290
▁walked	-6291
▁signing	-6292
37	-6293
Con	-6294
▁Invest	-6295
▁efficient	-6296
▁hur	-6297
▁cere	-6298
▁Bat	-6299
▁Way	-6300
▁SC	-6301
isms	-6302
▁Camer	-6303
FP	-6304
game	-6305
▁vacc	-6306
▁2018	-6307
▁End	-6308
weight	-6309
▁moder	-6310
▁regional	-6311
▁Arch	-6312
▁sentence	-6313
▁Tit	-6314
▁suffering	-6315
▁urban	-6316
▁ancient	-6317
▁commitment	-6318
▁frequently	-6319
-6	-6320
200	-6321
▁Real	-6322
▁bon	-6323
▁carrying	-6324
▁boss	-6325
ceived	-6326
▁volunte	-6327
rong	-6328
▁Brad	-6329
▁guide	-6330
TS	-6331
▁sharing	-6332
▁height	-6333
ulous	-6334
rating	-6335
▁comfortable	-6336
▁34	-6337
▁acting	-6338
power	-6339
▁cert	-6340
▁hall	-6341
Al	-6342
▁neut	-6343
▁sand	-6344
rors	-6345
▁ring	-6346
▁2016.	-6347
ras	-6348
friend	-6349
▁depth	-6350
▁pip	-6351
▁lies	-6352
▁femin	-6353
▁newslet	-6354
▁literally	-6355
▁Lord	-6356
27	-6357
oma	-6358
otal	-6359
awa	-6360
▁earned	-6361
FA	-6362
She	-6363
▁targeted	-6364
nam	-6365
▁wake	-6366
▁strange	-6367
rence	-6368
▁excellent	-6369
bel	-6370
▁tiny	-6371
▁Stand	-6372
▁Miller	-6373
▁struck	-6374
ora	-6375
▁intent	-6376
▁serving	-6377
ua	-6378
▁bat	-6379
▁studio	-6380
bar	-6381
ugh	-6382
xy	-6383
pan	-6384
▁fuck	-6385
▁knowing	-6386
▁2015.	-6387
▁termin	-6388
rive	-6389
▁Test	-6390
▁updated	-6391
▁Wars	-6392
▁Class	-6393
▁owned	-6394
▁Agency	-6395
▁artists	-6396
▁referred	-6397
▁wid	-6398
▁usual	-6399
▁realized	-6400
▁upcoming	-6401
▁infl	-6402
OC	-6403
▁CIA	-6404
▁fixed	-6405
▁Jord	-6406
oration	-6407
▁alongside	-6408
▁cycle	-6409
▁Py	-6410
iami	-6411
oming	-6412
▁trick	-6413
▁Daniel	-6414
ta	-6415
▁tournament	-6416
▁Spanish	-6417
▁wins	-6418
▁Sn	-6419
▁folks	-6420
▁reput	-6421
gery	-6422
▁Labor	-6423
▁Gall	-6424
▁exhib	-6425
acc	-6426
uated	-6427
▁dedicated	-6428
▁volume	-6429
▁relationships	-6430
adel	-6431
▁channel	-6432
▁protected	-6433
▁opponents	-6434
▁mouth	-6435
▁coffee	-6436
erves	-6437
▁2006	-6438
▁Love	-6439
▁approval	-6440
▁overwhel	-6441
▁Dam	-6442
▁crash	-6443
onymous	-6444
▁universe	-6445
▁watched	-6446
26	-6447
luding	-6448
▁observed	-6449
rome	-6450
▁aside	-6451
American	-6452
▁Story	-6453
▁dealing	-6454
▁narr	-6455
▁surrounding	-6456
▁exciting	-6457
▁liqu	-6458
uable	-6459
▁refugees	-6460
▁controversial	-6461
▁sister	-6462
▁Administ	-6463
▁Did	-6464
▁Detroit	-6465
▁Light	-6466
iciency	-6467
kel	-6468
▁promised	-6469
Ar	-6470
▁assets	-6471
▁sample	-6472
zy	-6473
▁Brian	-6474
▁Source	-6475
▁Dun	-6476
▁Check	-6477
▁battery	-6478
▁latter	-6479
▁properties	-6480
iveness	-6481
▁wal	-6482
▁forth	-6483
▁surveillance	-6484
▁MS	-6485
▁simpl	-6486
▁Adam	-6487
▁Steven	-6488
▁desk	-6489
].	-6490
▁inspired	-6491
▁sweet	-6492
▁OF	-6493
lock	-6494
anges	-6495
iger	-6496
▁Special	-6497
▁Unfortunately	-6498
▁Attorney	-6499
38	-6500
hus	-6501
stone	-6502
ensity	-6503
▁2011,	-6504
▁2014.	-6505
▁deeply	-6506
▁instru	-6507
aze	-6508
fire	-6509
▁dry	-6510
▁reward	-6511
pool	-6512
allas	-6513
▁chose	-6514
▁Java	-6515
▁embr	-6516
▁properly	-6517
▁franchise	-6518
ulture	-6519
▁Click	-6520
▁subsid	-6521
▁suicide	-6522
▁diet	-6523
▁passion	-6524
▁extended	-6525
azi	-6526
▁journey	-6527
▁Land	-6528
boy	-6529
▁Ford	-6530
oster	-6531
▁orders	-6532
▁involving	-6533
umber	-6534
▁noticed	-6535
▁sending	-6536
▁chairman	-6537
gor	-6538
▁alive	-6539
▁anyway	-6540
▁Jr	-6541
ingu	-6542
▁Italy	-6543
▁du	-6544
▁Win	-6545
▁agenda	-6546
▁Victor	-6547
▁meat	-6548
▁hotel	-6549
▁causing	-6550
▁terrorism	-6551
▁Gi	-6552
foot	-6553
ogan	-6554
▁king	-6555
▁Ah	-6556
▁flu	-6557
’.	-6558
▁Turn	-6559
▁colon	-6560
▁domin	-6561
▁retire	-6562
▁territory	-6563
phy	-6564
▁winter	-6565
▁abortion	-6566
▁basket	-6567
▁gap	-6568
obile	-6569
▁mistake	-6570
apse	-6571
▁matches	-6572
▁Call	-6573
▁Such	-6574
▁promote	-6575
▁Dark	-6576
▁schedule	-6577
▁remote	-6578
▁explore	-6579
▁pled	-6580
▁welcome	-6581
▁Night	-6582
▁eating	-6583
▁personally	-6584
ura	-6585
sole	-6586
verty	-6587
woman	-6588
▁gang	-6589
▁wire	-6590
▁goods	-6591
▁Hollywood	-6592
look	-6593
▁Bell	-6594
▁teachers	-6595
▁tested	-6596
▁Lu	-6597
▁(5	-6598
▁Dig	-6599
itarian	-6600
arn	-6601
▁risks	-6602
ixt	-6603
▁proof	-6604
▁upper	-6605
▁rub	-6606
▁west	-6607
▁2010,	-6608
▁narrow	-6609
▁unknown	-6610
▁limits	-6611
▁destroyed	-6612
aire	-6613
▁requirements	-6614
▁god	-6615
▁puts	-6616
▁approximately	-6617
ORE	-6618
▁defeat	-6619
▁poverty	-6620
▁suddenly	-6621
▁facilities	-6622
▁Share	-6623
rison	-6624
▁shel	-6625
icer	-6626
DS	-6627
asks	-6628
inations	-6629
aug	-6630
▁Miami	-6631
▁100,000	-6632
▁discover	-6633
▁impressive	-6634
▁likes	-6635
▁Among	-6636
▁protesters	-6637
▁egg	-6638
▁Turk	-6639
onic	-6640
▁northern	-6641
▁communication	-6642
</	-6643
▁$1.	-6644
▁posts	-6645
▁purposes	-6646
▁theme	-6647
▁Conf	-6648
▁adapt	-6649
▁Nations	-6650
▁Disney	-6651
▁Organ	-6652
▁blame	-6653
▁sho	-6654
ockey	-6655
▁meetings	-6656
lv	-6657
▁teacher	-6658
ao	-6659
▁Minnes	-6660
▁Sk	-6661
▁Business	-6662
▁phenomen	-6663
▁maximum	-6664
▁east	-6665
▁disag	-6666
you	-6667
http	-6668
▁2005	-6669
▁Asian	-6670
▁equival	-6671
sex	-6672
▁slowly	-6673
▁Anth	-6674
▁Fre	-6675
UR	-6676
Photo	-6677
▁selected	-6678
▁supports	-6679
ati	-6680
▁Network	-6681
▁Services	-6682
▁somehow	-6683
▁attacked	-6684
▁congress	-6685
At	-6686
▁Vis	-6687
▁selection	-6688
▁topic	-6689
▁Educ	-6690
▁locations	-6691
edd	-6692
▁sky	-6693
▁deals	-6694
.[5	-6695
▁Coll	-6696
▁polls	-6697
ocation	-6698
lls	-6699
▁punish	-6700
▁5,	-6701
▁diagn	-6702
▁conver	-6703
▁Thus	-6704
▁directed	-6705
▁oblig	-6706
▁prote	-6707
cow	-6708
▁falling	-6709
],	-6710
▁virtual	-6711
▁drag	-6712
▁unemploy	-6713
▁Ep	-6714
▁merely	-6715
▁nomine	-6716
▁Cam	-6717
▁decent	-6718
▁recognize	-6719
▁seats	-6720
Cl	-6721
▁PS	-6722
▁critics	-6723
alle	-6724
list	-6725
orted	-6726
▁Fred	-6727
▁soul	-6728
ciples	-6729
▁Indeed	-6730
▁Senator	-6731
34	-6732
▁fees	-6733
▁arguments	-6734
▁NHL	-6735
▁precise	-6736
36	-6737
inson	-6738
▁medic	-6739
▁stream	-6740
▁regions	-6741
ipl	-6742
pes	-6743
anes	-6744
redit	-6745
▁dogs	-6746
▁exposed	-6747
▁typical	-6748
▁definition	-6749
▁Cross	-6750
▁strongly	-6751
▁dress	-6752
▁300	-6753
▁Company	-6754
▁wage	-6755
3)	-6756
▁assume	-6757
▁Foreign	-6758
▁empty	-6759
aser	-6760
▁(200	-6761
▁allies	-6762
▁scheme	-6763
▁anymore	-6764
▁Rog	-6765
▁Hun	-6766
ums	-6767
▁Bru	-6768
▁Society	-6769
dro	-6770
ether	-6771
▁unw	-6772
▁Irish	-6773
▁comparison	-6774
▁%	-6775
VER	-6776
▁Jordan	-6777
▁license	-6778
▁tort	-6779
NC	-6780
▁Lew	-6781
▁Which	-6782
rett	-6783
▁Spain	-6784
▁Jersey	-6785
▁cutting	-6786
▁bench	-6787
post	-6788
▁format	-6789
▁Minnesota	-6790
▁understood	-6791
74	-6792
▁Nick	-6793
▁database	-6794
▁Oper	-6795
▁pal	-6796
▁requests	-6797
▁Water	-6798
▁worried	-6799
▁desper	-6800
▁Key	-6801
▁Scotland	-6802
▁southern	-6803
▁somewhere	-6804
▁resistance	-6805
▁Moore	-6806
raid	-6807
▁fields	-6808
▁constant	-6809
▁OS	-6810
▁honor	-6811
▁incl	-6812
gender	-6813
▁emissions	-6814
pected	-6815
▁Come	-6816
▁claiming	-6817
Pro	-6818
▁evil	-6819
po	-6820
▁DNA	-6821
osis	-6822
ems	-6823
▁pic	-6824
▁Taylor	-6825
Our	-6826
▁primarily	-6827
▁trading	-6828
▁officially	-6829
▁aspects	-6830
▁comprom	-6831
▁conscious	-6832
▁bunch	-6833
asts	-6834
▁stronger	-6835
▁flex	-6836
owered	-6837
▁truck	-6838
▁condem	-6839
vy	-6840
cers	-6841
▁ble	-6842
▁village	-6843
▁explanation	-6844
▁$10	-6845
▁squad	-6846
▁ideal	-6847
▁communications	-6848
▁letters	-6849
▁spin	-6850
▁Never	-6851
▁hits	-6852
▁baseball	-6853
▁champion	-6854
▁anx	-6855
▁rejected	-6856
▁transp	-6857
▁capture	-6858
▁reasonable	-6859
▁Dar	-6860
▁Dallas	-6861
▁Kn	-6862
icken	-6863
sters	-6864
▁sole	-6865
▁journalists	-6866
▁bid	-6867
▁Review	-6868
▁driven	-6869
GBT	-6870
▁profit	-6871
▁Tem	-6872
▁Live	-6873
▁somebody	-6874
▁Mu	-6875
▁actor	-6876
▁AR	-6877
irms	-6878
▁6,	-6879
▁Has	-6880
arity	-6881
▁Ut	-6882
▁Orig	-6883
eping	-6884
▁Care	-6885
▁phase	-6886
▁houses	-6887
▁constit	-6888
enders	-6889
▁gotten	-6890
abis	-6891
oric	-6892
▁sustain	-6893
▁informed	-6894
unning	-6895
▁outcome	-6896
▁brew	-6897
▁Georgia	-6898
celer	-6899
▁components	-6900
rates	-6901
▁icon	-6902
▁ruled	-6903
▁choices	-6904
▁encourage	-6905
intend	-6906
▁fold	-6907
▁harass	-6908
▁rating	-6909
▁amounts	-6910
▁incredible	-6911
▁signal	-6912
▁intellect	-6913
▁boot	-6914
▁gaming	-6915
▁estimates	-6916
▁bear	-6917
▁distinct	-6918
igation	-6919
▁obtained	-6920
zens	-6921
▁Global	-6922
▁Sea	-6923
17.	-6924
iform	-6925
▁Academ	-6926
▁technologies	-6927
▁rus	-6928
otten	-6929
▁Tony	-6930
One	-6931
0000	-6932
▁Joseph	-6933
▁perfectly	-6934
▁1970	-6935
rary	-6936
▁narrative	-6937
han	-6938
▁resulting	-6939
▁ending	-6940
▁titles	-6941
axy	-6942
▁incredibly	-6943
ser	-6944
▁gro	-6945
▁Rick	-6946
▁ties	-6947
▁controlled	-6948
28	-6949
▁contem	-6950
▁Make	-6951
▁situations	-6952
%)	-6953
▁CD	-6954
▁bills	-6955
▁fifth	-6956
▁payment	-6957
▁rig	-6958
▁answers	-6959
▁threatened	-6960
▁drawn	-6961
▁escape	-6962
▁Josh	-6963
▁engage	-6964
▁nobody	-6965
▁awesome	-6966
▁keeps	-6967
▁conclusion	-6968
29	-6969
▁finds	-6970
-10	-6971
▁49	-6972
▁retain	-6973
▁sight	-6974
amin	-6975
rehens	-6976
▁overse	-6977
▁stretch	-6978
owed	-6979
▁ticket	-6980
▁parking	-6981
hips	-6982
▁encoun	-6983
Bl	-6984
▁Os	-6985
▁tall	-6986
▁winner	-6987
▁courts	-6988
▁Program	-6989
▁terrible	-6990
alo	-6991
essed	-6992
▁tied	-6993
▁Italian	-6994
▁payments	-6995
▁employment	-6996
▁Constitution	-6997
▁extensive	-6998
▁trees	-6999
▁stead	-7000
▁continuing	-7001
▁Balt	-7002
▁Fort	-7003
▁loan	-7004
▁captured	-7005
emen	-7006
▁stim	-7007
lights	-7008
▁returning	-7009
________	-7010
▁pod	-7011
rific	-7012
fast	-7013
▁inqu	-7014
▁excess	-7015
ba	-7016
▁Kelly	-7017
asters	-7018
▁thread	-7019
▁chosen	-7020
otes	-7021
▁province	-7022
owa	-7023
ivery	-7024
▁regularly	-7025
iscal	-7026
▁reporter	-7027
/0	-7028
▁employee	-7029
39	-7030
▁kil	-7031
▁Point	-7032
▁mixed	-7033
▁routine	-7034
▁granted	-7035
▁coalition	-7036
▁organized	-7037
▁deck	-7038
▁crucial	-7039
izz	-7040
▁satell	-7041
▁Parliament	-7042
bal	-7043
▁founder	-7044
▁Pay	-7045
▁Civil	-7046
▁48	-7047
▁Southern	-7048
▁electricity	-7049
mod	-7050
▁37	-7051
▁Moscow	-7052
▁exists	-7053
▁complicated	-7054
phia	-7055
▁apartment	-7056
ifer	-7057
itals	-7058
▁rival	-7059
▁Foot	-7060
▁elev	-7061
▁crypt	-7062
▁2013.	-7063
▁aimed	-7064
▁dozen	-7065
▁elsewhere	-7066
mo	-7067
▁developer	-7068
▁infect	-7069
."[	-7070
▁Ult	-7071
▁feedback	-7072
▁Full	-7073
tes	-7074
▁Bowl	-7075
inding	-7076
::	-7077
▁county	-7078
ilarly	-7079
▁Dead	-7080
▁weird	-7081
▁flying	-7082
▁Pacific	-7083
▁writers	-7084
▁myth	-7085
▁episodes	-7086
▁constantly	-7087
adelphia	-7088
there	-7089
▁solutions	-7090
▁History	-7091
▁stuck	-7092
▁contributed	-7093
regon	-7094
onsin	-7095
▁accurate	-7096
▁drinking	-7097
▁plastic	-7098
▁Sever	-7099
▁param	-7100
▁iron	-7101
▁marked	-7102
▁bitcoin	-7103
▁imper	-7104
▁conven	-7105
isconsin	-7106
Un	-7107
▁Hot	-7108
▁unp	-7109
With	-7110
▁assistance	-7111
▁Greg	-7112
▁demands	-7113
▁Jason	-7114
▁regardless	-7115
▁surgery	-7116
▁Nob	-7117
wan	-7118
bro	-7119
▁mayor	-7120
ibilities	-7121
▁controls	-7122
▁Bull	-7123
▁proved	-7124
inity	-7125
isan	-7126
▁dict	-7127
ali	-7128
▁Jac	-7129
▁Oak	-7130
▁Following	-7131
▁successfully	-7132
TH	-7133
▁fighters	-7134
CE	-7135
▁CH	-7136
chain	-7137
▁pilot	-7138
▁assistant	-7139
▁murd	-7140
▁clients	-7141
78	-7142
▁ok	-7143
▁passes	-7144
▁Northern	-7145
▁represented	-7146
6)	-7147
▁Policy	-7148
▁newly	-7149
▁permanent	-7150
▁aggressive	-7151
▁enemies	-7152
Be	-7153
▁academic	-7154
▁collected	-7155
▁Series	-7156
▁concluded	-7157
▁Have	-7158
▁complaint	-7159
▁habit	-7160
▁category	-7161
▁registered	-7162
▁estate	-7163
▁innoc	-7164
lder	-7165
▁tank	-7166
anchester	-7167
mont	-7168
▁privile	-7169
▁western	-7170
▁atmosphere	-7171
sea	-7172
uan	-7173
▁Major	-7174
▁patterns	-7175
▁Development	-7176
▁Roman	-7177
▁recovery	-7178
▁prominent	-7179
ii	-7180
▁Start	-7181
▁Moh	-7182
▁worldwide	-7183
▁NBC	-7184
▁racial	-7185
▁->	-7186
earing	-7187
▁Atlanta	-7188
imp	-7189
▁Mid	-7190
anny	-7191
▁Bry	-7192
▁Snow	-7193
▁consumption	-7194
Ex	-7195
▁Kurd	-7196
▁Ash	-7197
hent	-7198
apes	-7199
▁paint	-7200
▁Does	-7201
▁uncertain	-7202
▁McG	-7203
▁programming	-7204
▁compens	-7205
":"	-7206
▁sanctions	-7207
inch	-7208
▁Zeal	-7209
EW	-7210
elect	-7211
.[3	-7212
▁Greek	-7213
▁Report	-7214
▁dollar	-7215
▁exposure	-7216
▁Championship	-7217
rete	-7218
▁scenario	-7219
-9	-7220
▁Through	-7221
▁automatically	-7222
▁manip	-7223
▁penalty	-7224
▁principles	-7225
▁chances	-7226
▁List	-7227
fall	-7228
▁Hom	-7229
▁enthus	-7230
▁shock	-7231
▁sufficient	-7232
▁pace	-7233
▁ads	-7234
rage	-7235
▁sympt	-7236
▁minority	-7237
▁reputation	-7238
uine	-7239
▁busy	-7240
▁extrem	-7241
▁recording	-7242
aron	-7243
iana	-7244
aed	-7245
month	-7246
▁Food	-7247
▁angry	-7248
▁hidden	-7249
▁38	-7250
▁blocks	-7251
▁Wisconsin	-7252
▁Hard	-7253
Donald	-7254
▁taste	-7255
itar	-7256
▁Harry	-7257
urb	-7258
▁FC	-7259
▁enable	-7260
▁generate	-7261
sm	-7262
▁fought	-7263
▁Season	-7264
▁defence	-7265
▁Ray	-7266
▁teaching	-7267
▁cameras	-7268
▁raising	-7269
▁Philadelphia	-7270
▁Reuters	-7271
▁profile	-7272
▁Build	-7273
▁depending	-7274
aun	-7275
▁visited	-7276
▁cited	-7277
▁monit	-7278
II	-7279
▁Mir	-7280
▁Judge	-7281
▁degrees	-7282
▁roster	-7283
▁operate	-7284
▁solve	-7285
athy	-7286
agram	-7287
▁describes	-7288
ules	-7289
▁thin	-7290
▁Veg	-7291
▁Nation	-7292
▁enjoyed	-7293
▁machines	-7294
gorith	-7295
▁Using	-7296
7)	-7297
▁portion	-7298
▁thousand	-7299
▁installed	-7300
▁Saf	-7301
▁crack	-7302
lan	-7303
etary	-7304
▁($	-7305
▁survive	-7306
’,	-7307
▁contracts	-7308
▁veteran	-7309
ifications	-7310
▁techniques	-7311
▁shares	-7312
▁Education	-7313
▁lawyers	-7314
MS	-7315
▁generated	-7316
▁duty	-7317
cus	-7318
lers	-7319
sell	-7320
▁Use	-7321
▁gall	-7322
▁equivalent	-7323
upid	-7324
▁personnel	-7325
▁phr	-7326
▁therap	-7327
▁wing	-7328
rypt	-7329
actions	-7330
▁apolog	-7331
▁championship	-7332
▁Oregon	-7333
▁attended	-7334
▁150	-7335
▁rarely	-7336
▁brut	-7337
▁medium	-7338
▁downtown	-7339
▁valuable	-7340
▁inev	-7341
▁Eastern	-7342
▁Without	-7343
▁IT	-7344
▁extension	-7345
▁ru	-7346
▁Linux	-7347
▁entit	-7348
▁conspir	-7349
By	-7350
▁scenes	-7351
▁processes	-7352
▁Hor	-7353
ima	-7354
▁OK	-7355
▁Link	-7356
idency	-7357
▁audio	-7358
▁McCain	-7359
▁extract	-7360
▁cable	-7361
▁feelings	-7362
log	-7363
▁Lo	-7364
▁vulnerable	-7365
olt	-7366
▁accomp	-7367
▁mail	-7368
▁afraid	-7369
▁LGBT	-7370
▁lawmakers	-7371
iy	-7372
▁AS	-7373
▁anticip	-7374
▁comic	-7375
▁index	-7376
▁troub	-7377
car	-7378
▁1,000	-7379
▁engineering	-7380
****	-7381
▁Manchester	-7382
▁elite	-7383
▁finger	-7384
quarters	-7385
ker	-7386
orough	-7387
▁Kent	-7388
▁emerged	-7389
cling	-7390
▁Ger	-7391
▁stadium	-7392
inder	-7393
▁Data	-7394
▁photograph	-7395
scape	-7396
▁Ros	-7397
▁inspir	-7398
▁firms	-7399
▁Mayor	-7400
mal	-7401
▁discipl	-7402
▁root	-7403
▁Independ	-7404
istent	-7405
▁**	-7406
▁adopted	-7407
▁resulted	-7408
rep	-7409
▁tor	-7410
▁worker	-7411
azz	-7412
ria	-7413
ikes	-7414
front	-7415
▁Information	-7416
ez	-7417
ifies	-7418
▁phones	-7419
▁explicit	-7420
68	-7421
▁7,	-7422
pread	-7423
▁Fix	-7424
▁advertising	-7425
▁Hay	-7426
icate	-7427
mann	-7428
ashes	-7429
aturally	-7430
▁Henry	-7431
","	-7432
iler	-7433
▁shortly	-7434
▁Pack	-7435
▁funny	-7436
▁unusual	-7437
▁2009,	-7438
▁component	-7439
▁establishment	-7440
▁Fair	-7441
rently	-7442
▁drawing	-7443
▁Zealand	-7444
obs	-7445
▁ho	-7446
====	-7447
star	-7448
viously	-7449
▁finance	-7450
▁possession	-7451
uer	-7452
▁Navy	-7453
▁permission	-7454
▁behalf	-7455
▁cup	-7456
▁Head	-7457
▁disaster	-7458
gun	-7459
ihad	-7460
ogen	-7461
▁spr	-7462
▁2004	-7463
▁indicate	-7464
▁everywhere	-7465
▁Look	-7466
▁intense	-7467
▁neutral	-7468
▁Rand	-7469
▁cyber	-7470
▁sharp	-7471
▁formal	-7472
▁mainly	-7473
▁compete	-7474
▁computers	-7475
▁Pen	-7476
▁wheel	-7477
▁fake	-7478
▁pounds	-7479
▁visible	-7480
▁Sometimes	-7481
▁gift	-7482
▁obst	-7483
▁engaged	-7484
▁Stat	-7485
▁loud	-7486
▁browser	-7487
▁stable	-7488
%.	-7489
MP	-7490
aus	-7491
arsh	-7492
isp	-7493
writ	-7494
▁Kir	-7495
▁advis	-7496
▁SP	-7497
prise	-7498
21	-7499
▁taught	-7500
▁magn	-7501
▁recru	-7502
▁SH	-7503
▁Coast	-7504
▁agric	-7505
▁thick	-7506
▁Cre	-7507
da	-7508
▁Iowa	-7509
▁priority	-7510
▁Amendment	-7511
▁principle	-7512
23	-7513
text	-7514
▁taxpay	-7515
▁Several	-7516
▁Centre	-7517
▁enorm	-7518
▁magic	-7519
▁banned	-7520
▁historic	-7521
eman	-7522
▁nut	-7523
imore	-7524
▁negotiations	-7525
▁Ext	-7526
▁fee	-7527
▁bes	-7528
▁implementation	-7529
▁2012.	-7530
▁Music	-7531
▁plug	-7532
▁recognized	-7533
core	-7534
44	-7535
▁recip	-7536
▁10,	-7537
▁NAT	-7538
▁44	-7539
▁Ice	-7540
Image	-7541
asion	-7542
▁warming	-7543
CS	-7544
▁Administration	-7545
▁Viet	-7546
anted	-7547
▁Given	-7548
▁Turkish	-7549
▁Ly	-7550
idelines	-7551
▁founded	-7552
0.0	-7553
▁laid	-7554
Oh	-7555
eland	-7556
ATE	-7557
▁UFC	-7558
▁ju	-7559
▁Diego	-7560
▁Anthony	-7561
▁basketball	-7562
▁’	-7563
▁genuine	-7564
ca	-7565
▁tag	-7566
▁creates	-7567
▁hadn	-7568
making	-7569
▁Little	-7570
/1	-7571
thew	-7572
▁Field	-7573
▁clubs	-7574
▁propag	-7575
cles	-7576
▁Avenue	-7577
▁edition	-7578
abama	-7579
▁Es	-7580
▁Christians	-7581
▁TO	-7582
weet	-7583
▁bridge	-7584
xic	-7585
▁VR	-7586
▁Sir	-7587
▁Video	-7588
▁SS	-7589
teen	-7590
▁blind	-7591
▁struggling	-7592
EA	-7593
-7	-7594
▁WH	-7595
▁mel	-7596
▁corruption	-7597
rative	-7598
riers	-7599
▁toler	-7600
▁losses	-7601
▁description	-7602
▁12.	-7603
rac	-7604
▁tracks	-7605
▁ABC	-7606
▁gained	-7607
▁arrange	-7608
abs	-7609
▁dozens	-7610
found	-7611
▁headed	-7612
etime	-7613
rell	-7614
▁participate	-7615
ogether	-7616
▁Arm	-7617
ounced	-7618
▁Fund	-7619
▁footage	-7620
▁manufacturing	-7621
▁Lind	-7622
idespread	-7623
▁strict	-7624
▁wonderful	-7625
iro	-7626
era	-7627
▁plate	-7628
active	-7629
elf	-7630
▁counsel	-7631
▁philosophy	-7632
▁structures	-7633
who	-7634
▁Bon	-7635
▁beliefs	-7636
BO	-7637
▁interface	-7638
▁rely	-7639
▁Professor	-7640
▁ESP	-7641
rators	-7642
▁Premier	-7643
▁Luc	-7644
▁upset	-7645
lay	-7646
▁64	-7647
▁fault	-7648
▁withdraw	-7649
▁Kat	-7650
bell	-7651
▁algorith	-7652
▁deliber	-7653
▁Jun	-7654
▁uncom	-7655
▁yield	-7656
▁Conference	-7657
▁containing	-7658
▁foundation	-7659
▁Rus	-7660
▁acceler	-7661
▁affili	-7662
▁airport	-7663
▁ww	-7664
▁Person	-7665
world	-7666
▁flaw	-7667
▁achieved	-7668
▁uniform	-7669
▁saved	-7670
▁Related	-7671
▁bom	-7672
▁liked	-7673
▁welf	-7674
▁destruction	-7675
agger	-7676
▁cogn	-7677
▁Royal	-7678
▁Patrick	-7679
▁expectations	-7680
▁strikes	-7681
▁Market	-7682
▁pump	-7683
ni	-7684
▁Gov	-7685
▁Hit	-7686
▁cha	-7687
▁shit	-7688
wo	-7689
▁Hell	-7690
rous	-7691
▁ham	-7692
▁lights	-7693
▁exception	-7694
portion	-7695
yard	-7696
izon	-7697
▁veget	-7698
amber	-7699
oured	-7700
▁asks	-7701
▁aver	-7702
▁8,	-7703
▁www	-7704
▁incent	-7705
▁invent	-7706
▁languages	-7707
Getty	-7708
▁CO	-7709
▁samples	-7710
Man	-7711
profit	-7712
▁journalist	-7713
etts	-7714
inking	-7715
▁scoring	-7716
▁welfare	-7717
▁stations	-7718
▁ven	-7719
burgh	-7720
▁tackle	-7721
enth	-7722
▁notion	-7723
▁contained	-7724
▁exclusive	-7725
▁Jay	-7726
▁doors	-7727
abinet	-7728
away	-7729
▁Allen	-7730
Pe	-7731
▁barely	-7732
this	-7733
▁sup	-7734
tering	-7735
▁interviews	-7736
▁hired	-7737
▁illness	-7738
▁reviews	-7739
▁Ren	-7740
▁Rose	-7741
▁Academy	-7742
▁friendly	-7743
▁discrimination	-7744
▁river	-7745
▁neighb	-7746
osexual	-7747
▁entering	-7748
sylv	-7749
▁roles	-7750
▁Alabama	-7751
▁forever	-7752
▁Ap	-7753
▁Fed	-7754
Every	-7755
▁Kingdom	-7756
▁movements	-7757
▁minds	-7758
▁Bernie	-7759
▁perpet	-7760
ecut	-7761
ilton	-7762
▁backed	-7763
▁profession	-7764
▁Email	-7765
▁suggesting	-7766
olis	-7767
▁tickets	-7768
igen	-7769
ouver	-7770
▁Whether	-7771
▁anybody	-7772
udes	-7773
▁relief	-7774
mate	-7775
ystem	-7776
▁Ball	-7777
▁ships	-7778
olen	-7779
▁ren	-7780
▁Circ	-7781
ulating	-7782
▁farmers	-7783
she	-7784
▁Guardian	-7785
umer	-7786
▁ridic	-7787
9)	-7788
▁hole	-7789
▁gonna	-7790
ione	-7791
interest	-7792
▁challenging	-7793
▁Radio	-7794
▁hang	-7795
▁Conservative	-7796
->	-7797
esy	-7798
▁walls	-7799
▁Museum	-7800
▁processing	-7801
▁75	-7802
▁smoke	-7803
ked	-7804
aska	-7805
mission	-7806
▁indicated	-7807
8)	-7808
▁Baltimore	-7809
antic	-7810
▁external	-7811
▁Albert	-7812
▁Golden	-7813
athered	-7814
een	-7815
▁Anton	-7816
aching	-7817
▁NOT	-7818
▁legend	-7819
▁stab	-7820
▁vary	-7821
▁contribute	-7822
▁viewers	-7823
▁Ont	-7824
▁nominee	-7825
▁Set	-7826
▁websites	-7827
▁NSA	-7828
▁2008,	-7829
▁trigger	-7830
▁synt	-7831
UL	-7832
▁Mah	-7833
rik	-7834
▁constitutional	-7835
HS	-7836
▁restrictions	-7837
page	-7838
▁Town	-7839
▁representative	-7840
lad	-7841
ouch	-7842
50,000	-7843
▁Cost	-7844
▁expanded	-7845
uce	-7846
▁0.0	-7847
oen	-7848
▁2017.	-7849
▁convin	-7850
▁ethnic	-7851
▁Ra	-7852
then	-7853
sylvania	-7854
▁smooth	-7855
▁democratic	-7856
▁widespread	-7857
▁rose	-7858
▁Columbia	-7859
66	-7860
ancouver	-7861
AA	-7862
▁Nic	-7863
▁reduction	-7864
▁bra	-7865
▁Latin	-7866
▁fab	-7867
icket	-7868
▁equally	-7869
▁producing	-7870
▁Anderson	-7871
enny	-7872
▁ocean	-7873
▁featuring	-7874
ferences	-7875
▁Scient	-7876
▁sensitive	-7877
▁overwhelming	-7878
achus	-7879
▁scores	-7880
▁technique	-7881
▁intellectual	-7882
lete	-7883
rator	-7884
▁Beach	-7885
ologists	-7886
ilipp	-7887
▁util	-7888
▁complaints	-7889
▁spark	-7890
▁Community	-7891
▁scream	-7892
▁Cameron	-7893
▁producer	-7894
ref	-7895
▁theat	-7896
▁inject	-7897
▁listening	-7898
▁delivery	-7899
▁initiative	-7900
▁Was	-7901
▁proven	-7902
AG	-7903
▁Core	-7904
▁Later	-7905
▁11,	-7906
▁Pass	-7907
▁Pent	-7908
▁flash	-7909
▁sugar	-7910
▁dinner	-7911
mary	-7912
▁association	-7913
LC	-7914
▁crop	-7915
▁menu	-7916
▁Vegas	-7917
▁unex	-7918
▁Kansas	-7919
ho	-7920
iel	-7921
uties	-7922
▁rapidly	-7923
▁reaching	-7924
▁warrant	-7925
▁Environment	-7926
▁porn	-7927
▁Matthew	-7928
▁remarks	-7929
▁Sony	-7930
▁unclear	-7931
PM	-7932
▁connections	-7933
▁array	-7934
▁define	-7935
usive	-7936
▁devast	-7937
▁electronic	-7938
▁AC	-7939
▁AND	-7940
▁Gun	-7941
▁spaces	-7942
▁?	-7943
▁1960	-7944
▁vital	-7945
▁rational	-7946
▁Chair	-7947
▁accus	-7948
▁prepare	-7949
orne	-7950
▁Medical	-7951
▁screens	-7952
▁11.	-7953
▁CBS	-7954
plate	-7955
▁independence	-7956
ami	-7957
▁Ale	-7958
arrass	-7959
cr	-7960
engers	-7961
▁Austin	-7962
▁collapse	-7963
EP	-7964
▁logic	-7965
▁campaigns	-7966
▁9,	-7967
achusetts	-7968
▁Pennsylvania	-7969
:0.17.	-7970
▁reprodu	-7971
▁Brew	-7972
▁hitting	-7973
▁Pot	-7974
▁hide	-7975
▁Family	-7976
jo	-7977
lessly	-7978
▁Square	-7979
pload	-7980
▁steal	-7981
ye	-7982
▁grass	-7983
▁Division	-7984
RI	-7985
▁Having	-7986
▁fiscal	-7987
▁subjects	-7988
EG	-7989
▁begun	-7990
▁lobby	-7991
PG	-7992
bi	-7993
▁Adv	-7994
appy	-7995
▁anger	-7996
ja	-7997
rical	-7998
▁civilians	-7999
▁improvements	-8000
▁viewed	-8001
▁2017,	-8002
▁reducing	-8003
sels	-8004
uros	-8005
▁racist	-8006
▁retired	-8007
▁practical	-8008
▁tail	-8009
▁carefully	-8010
▁Walker	-8011
gener	-8012
▁Control	-8013
▁normally	-8014
heast	-8015
▁Broad	-8016
uma	-8017
▁raw	-8018
▁Sus	-8019
▁Bad	-8020
▁behaviour	-8021
▁Queen	-8022
▁Keep	-8023
▁frag	-8024
▁scholars	-8025
▁thrown	-8026
▁clothes	-8027
▁factory	-8028
mad	-8029
▁Budd	-8030
aret	-8031
oding	-8032
▁Vancouver	-8033
▁hardly	-8034
▁invited	-8035
▁neighbour	-8036
▁corporations	-8037
▁hypot	-8038
▁settings	-8039
owing	-8040
iversary	-8041
▁joining	-8042
dem	-8043
▁Liver	-8044
▁cannabis	-8045
▁touchdown	-8046
worth	-8047
▁Exper	-8048
▁loyal	-8049
▁exceed	-8050
▁convinced	-8051
▁Stone	-8052
77	-8053
▁65	-8054
▁borrow	-8055
▁Connect	-8056
▁Sat	-8057
veland	-8058
▁robot	-8059
▁Action	-8060
▁neck	-8061
▁captain	-8062
▁stupid	-8063
▁heading	-8064
▁mo	-8065
ifest	-8066
▁Spring	-8067
▁190	-8068
▁bail	-8069
▁discovery	-8070
▁settlement	-8071
itage	-8072
▁NATO	-8073
▁wine	-8074
▁trained	-8075
▁Massachusetts	-8076
ommod	-8077
▁bath	-8078
▁displ	-8079
▁investigate	-8080
▁Age	-8081
▁recognition	-8082
nedy	-8083
▁luck	-8084
▁noise	-8085
▁fallen	-8086
▁strategic	-8087
▁jury	-8088
▁regulation	-8089
")	-8090
▁Ak	-8091
▁fears	-8092
▁comprehens	-8093
case	-8094
▁Battle	-8095
▁providers	-8096
▁convicted	-8097
▁depression	-8098
▁39	-8099
▁Ministry	-8100
▁collective	-8101
▁55	-8102
▁citizen	-8103
from	-8104
▁Plus	-8105
▁actors	-8106
▁soph	-8107
▁Earlier	-8108
▁respectively	-8109
▁Harris	-8110
▁Fall	-8111
▁Greece	-8112
▁HD	-8113
▁Main	-8114
▁versus	-8115
▁wages	-8116
▁disagree	-8117
▁framework	-8118
▁progressive	-8119
▁42	-8120
allel	-8121
▁referring	-8122
▁seemingly	-8123
▁12,	-8124
senal	-8125
imm	-8126
osit	-8127
▁serves	-8128
xit	-8129
▁tone	-8130
▁roads	-8131
▁register	-8132
▁deputy	-8133
▁statistics	-8134
▁Las	-8135
▁Lyn	-8136
▁Six	-8137
▁opinions	-8138
inf	-8139
▁Tri	-8140
▁estimate	-8141
umes	-8142
▁Ross	-8143
cience	-8144
▁coaches	-8145
arms	-8146
▁Death	-8147
ictions	-8148
▁Prince	-8149
▁fantasy	-8150
▁symptoms	-8151
▁unemployment	-8152
▁ignore	-8153
▁temporary	-8154
▁elig	-8155
▁MORE	-8156
▁papers	-8157
▁recall	-8158
▁purchased	-8159
RC	-8160
▁deeper	-8161
▁implemented	-8162
▁scandal	-8163
▁ownership	-8164
▁Jam	-8165
▁Form	-8166
▁absence	-8167
▁Revolution	-8168
anna	-8169
▁cos	-8170
▁pin	-8171
serv	-8172
▁incorpor	-8173
amsung	-8174
▁Pop	-8175
84	-8176
inois	-8177
▁ESPN	-8178
▁Tenn	-8179
▁lists	-8180
▁overt	-8181
▁rural	-8182
including	-8183
▁15,	-8184
▁mad	-8185
▁branch	-8186
▁Hospital	-8187
▁terrorists	-8188
▁suffer	-8189
▁casual	-8190
▁Brother	-8191
▁involvement	-8192
flix	-8193
icking	-8194
▁Hon	-8195
▁Dave	-8196
▁outs	-8197
▁cro	-8198
ndum	-8199
stract	-8200
▁recover	-8201
.[4	-8202
▁Arabia	-8203
▁fiction	-8204
▁prosec	-8205
▁Ott	-8206
raph	-8207
▁extend	-8208
▁licens	-8209
▁handful	-8210
▁colors	-8211
yer	-8212
▁stake	-8213
▁grounds	-8214
▁petition	-8215
1%	-8216
cription	-8217
▁conversations	-8218
">	-8219
▁Moon	-8220
▁Kennedy	-8221
▁failing	-8222
▁publication	-8223
▁je	-8224
▁Stadium	-8225
▁ultimate	-8226
▁Bron	-8227
▁400	-8228
ultural	-8229
▁WW	-8230
▁2003	-8231
3%	-8232
▁Tro	-8233
bn	-8234
▁shr	-8235
▁tweeted	-8236
▁activist	-8237
▁Ho	-8238
▁Lim	-8239
iences	-8240
▁remem	-8241
▁discussions	-8242
cover	-8243
itionally	-8244
▁substantial	-8245
wr	-8246
aning	-8247
▁Patri	-8248
▁Xbox	-8249
▁suspended	-8250
▁iP	-8251
▁Buff	-8252
▁testim	-8253
Sp	-8254
Not	-8255
▁legs	-8256
▁resign	-8257
'.	-8258
▁Santa	-8259
▁bacter	-8260
▁genetic	-8261
▁Mill	-8262
▁drama	-8263
ammed	-8264
▁steel	-8265
▁Mexican	-8266
▁missile	-8267
ila	-8268
▁peak	-8269
umin	-8270
maker	-8271
▁handed	-8272
iability	-8273
yo	-8274
claim	-8275
▁wars	-8276
▁Five	-8277
oval	-8278
▁Prop	-8279
▁Cook	-8280
▁accommod	-8281
▁Below	-8282
▁Short	-8283
▁brill	-8284
▁Engine	-8285
▁stayed	-8286
▁consistently	-8287
▁bureau	-8288
usted	-8289
▁covers	-8290
RS	-8291
▁Yeah	-8292
▁sorry	-8293
cific	-8294
▁2001	-8295
ington	-8296
rolled	-8297
▁Philipp	-8298
▁visitors	-8299
▁dynamic	-8300
▁Intelligence	-8301
des	-8302
▁reven	-8303
▁tasks	-8304
▁eastern	-8305
▁homeless	-8306
ordon	-8307
▁attempting	-8308
▁Master	-8309
▁affairs	-8310
▁transgender	-8311
▁swing	-8312
▁Howard	-8313
▁Justin	-8314
▁Aud	-8315
▁covering	-8316
▁awareness	-8317
iti	-8318
▁LA	-8319
heim	-8320
▁voter	-8321
▁attached	-8322
▁throwing	-8323
hour	-8324
▁embarrass	-8325
▁legitimate	-8326
▁controversy	-8327
▁Roy	-8328
▁rif	-8329
▁Code	-8330
▁resource	-8331
##	-8332
iry	-8333
▁Iranian	-8334
67	-8335
▁grav	-8336
▁barrel	-8337
▁mic	-8338
▁Expl	-8339
▁attitude	-8340
▁poly	-8341
▁suspected	-8342
▁milk	-8343
▁involves	-8344
▁liquid	-8345
▁improvement	-8346
acon	-8347
▁Low	-8348
▁Pitt	-8349
▁personality	-8350
arry	-8351
▁enormous	-8352
▁20,	-8353
▁Line	-8354
▁Cleveland	-8355
/11	-8356
acare	-8357
▁virus	-8358
argo	-8359
▁Freedom	-8360
▁Atlantic	-8361
▁dramatic	-8362
▁contributions	-8363
▁Lewis	-8364
▁layer	-8365
▁loans	-8366
▁sin	-8367
▁fulf	-8368
▁rook	-8369
angel	-8370
▁gathered	-8371
▁gear	-8372
sa	-8373
▁Illinois	-8374
▁appreciate	-8375
ective	-8376
▁offices	-8377
▁Football	-8378
▁platforms	-8379
FF	-8380
▁hook	-8381
▁entertainment	-8382
▁investigators	-8383
▁km	-8384
▁tries	-8385
▁musical	-8386
▁attacking	-8387
▁photograp	-8388
▁advocates	-8389
▁Ali	-8390
▁III	-8391
▁Hind	-8392
▁dump	-8393
▁bars	-8394
▁amid	-8395
▁ON	-8396
▁alien	-8397
▁export	-8398
▁boat	-8399
▁virtually	-8400
bec	-8401
▁checks	-8402
aka	-8403
▁gam	-8404
▁Sure	-8405
geon	-8406
▁Abb	-8407
▁Prov	-8408
▁forest	-8409
▁spoken	-8410
▁authent	-8411
▁tip	-8412
▁hint	-8413
dri	-8414
rec	-8415
▁2011.	-8416
▁conce	-8417
▁Denver	-8418
▁receiver	-8419
ipal	-8420
▁depends	-8421
▁protocol	-8422
▁diversity	-8423
▁Po	-8424
▁speaks	-8425
UN	-8426
zed	-8427
▁bug	-8428
▁mos	-8429
▁Morgan	-8430
▁shoulder	-8431
▁investigating	-8432
▁races	-8433
▁preced	-8434
▁Samsung	-8435
▁Norm	-8436
▁literature	-8437
▁transportation	-8438
▁drew	-8439
▁mechanism	-8440
▁Kar	-8441
▁promises	-8442
▁Event	-8443
▁stone	-8444
▁tomorrow	-8445
▁admit	-8446
▁holiday	-8447
▁presum	-8448
uits	-8449
▁maps	-8450
▁Liverpool	-8451
▁lying	-8452
lah	-8453
▁recommended	-8454
▁Str	-8455
amacare	-8456
▁reader	-8457
▁profits	-8458
These	-8459
▁horse	-8460
▁inner	-8461
▁encouraged	-8462
▁Marvel	-8463
▁Credit	-8464
hot	-8465
▁mining	-8466
▁yellow	-8467
▁guarantee	-8468
▁ranked	-8469
pat	-8470
ira	-8471
▁horror	-8472
▁Common	-8473
uted	-8474
vard	-8475
▁overs	-8476
▁exch	-8477
EST	-8478
▁joke	-8479
▁mistakes	-8480
▁Tour	-8481
▁cust	-8482
▁ballot	-8483
itary	-8484
otype	-8485
▁tape	-8486
55	-8487
▁Rather	-8488
▁monitor	-8489
PC	-8490
rets	-8491
89	-8492
App	-8493
keep	-8494
▁Tele	-8495
▁locked	-8496
▁addressed	-8497
▁intervention	-8498
▁moon	-8499
▁Price	-8500
▁Run	-8501
▁iOS	-8502
eding	-8503
intendo	-8504
▁careful	-8505
▁inflation	-8506
aval	-8507
assador	-8508
▁disrupt	-8509
▁coc	-8510
▁gains	-8511
ogs	-8512
Well	-8513
▁Non	-8514
wered	-8515
▁spokesperson	-8516
▁guest	-8517
comes	-8518
Do	-8519
phones	-8520
▁salary	-8521
▁silver	-8522
▁divided	-8523
▁foss	-8524
▁referendum	-8525
▁(“	-8526
▁dad	-8527
▁upgrade	-8528
▁Bang	-8529
▁Front	-8530
▁shout	-8531
▁lowest	-8532
▁Ba	-8533
door	-8534
!)	-8535
▁Equ	-8536
▁efficiency	-8537
▁chat	-8538
▁Creat	-8539
▁Design	-8540
▁Bra	-8541
▁comedy	-8542
▁Sean	-8543
▁neuro	-8544
Why	-8545
▁wrest	-8546
▁spiritual	-8547
ela	-8548
▁console	-8549
▁nomination	-8550
▁celeb	-8551
thon	-8552
▁reads	-8553
▁threw	-8554
pled	-8555
▁Gaza	-8556
▁scan	-8557
▁premium	-8558
▁handling	-8559
▁ax	-8560
ivals	-8561
ieties	-8562
▁Update	-8563
▁responses	-8564
▁”	-8565
▁jur	-8566
▁innovation	-8567
▁performing	-8568
▁conspiracy	-8569
▁acknowledged	-8570
▁marks	-8571
▁distributed	-8572
▁rom	-8573
Script	-8574
▁Getty	-8575
▁Associated	-8576
▁proposals	-8577
▁Technology	-8578
▁AI	-8579
▁Tes	-8580
rance	-8581
▁rear	-8582
▁commonly	-8583
▁Iron	-8584
▁Unlike	-8585
ropri	-8586
▁Corpor	-8587
▁brothers	-8588
▁fruit	-8589
▁(199	-8590
▁funded	-8591
▁mountain	-8592
6%	-8593
▁improving	-8594
▁_	-8595
high	-8596
▁assert	-8597
▁ingred	-8598
▁dates	-8599
▁humanity	-8600
69	-8601
▁Base	-8602
▁lucky	-8603
▁Empire	-8604
▁closing	-8605
▁Portland	-8606
▁abandoned	-8607
▁Ast	-8608
▁Speaking	-8609
▁Execut	-8610
▁Sweden	-8611
▁extraord	-8612
▁fantastic	-8613
▁Mrs	-8614
▁Alexander	-8615
▁16,	-8616
▁auto	-8617
repre	-8618
▁dance	-8619
▁Edward	-8620
▁Netflix	-8621
▁diverse	-8622
▁Ur	-8623
▁Unt	-8624
▁usage	-8625
▁stolen	-8626
Go	-8627
aping	-8628
▁subsequent	-8629
▁conventional	-8630
▁API	-8631
▁deficit	-8632
▁Jonathan	-8633
▁medicine	-8634
▁assessment	-8635
▁classified	-8636
▁Copy	-8637
▁exit	-8638
▁Ha	-8639
▁Ten	-8640
inction	-8641
▁demonstrated	-8642
▁Hop	-8643
unicip	-8644
▁surf	-8645
▁patch	-8646
▁noting	-8647
▁Eag	-8648
▁Sep	-8649
▁chapter	-8650
▁universities	-8651
fund	-8652
▁rhet	-8653
▁counts	-8654
▁ignored	-8655
▁temperatures	-8656
▁symp	-8657
reprene	-8658
type	-8659
▁Figure	-8660
▁Chel	-8661
▁protecting	-8662
▁Carter	-8663
▁replied	-8664
▁trem	-8665
▁Iraqi	-8666
▁replacement	-8667
▁Wolf	-8668
▁margin	-8669
▁buff	-8670
▁representing	-8671
dated	-8672
▁Final	-8673
▁Cho	-8674
eries	-8675
▁copies	-8676
▁Lear	-8677
annels	-8678
▁Sarah	-8679
▁Former	-8680
▁racism	-8681
har	-8682
▁revel	-8683
▁astron	-8684
▁titled	-8685
▁accomplish	-8686
erted	-8687
ounce	-8688
▁2002	-8689
▁lets	-8690
▁compe	-8691
▁hosp	-8692
▁Dream	-8693
▁Maryland	-8694
▁lands	-8695
▁Indiana	-8696
ultane	-8697
▁festival	-8698
dr	-8699
▁18,	-8700
▁Graham	-8701
esty	-8702
▁ranks	-8703
▁scope	-8704
▁</	-8705
▁Warren	-8706
▁portray	-8707
▁appearances	-8708
▁gig	-8709
▁Children	-8710
▁incidents	-8711
▁14,	-8712
scale	-8713
▁contrad	-8714
▁criticized	-8715
▁inequ	-8716
▁plain	-8717
▁Liberal	-8718
▁insisted	-8719
▁Eff	-8720
shire	-8721
▁Indust	-8722
▁twenty	-8723
▁partnership	-8724
▁joy	-8725
plete	-8726
▁Crit	-8727
▁insist	-8728
▁Cow	-8729
▁3-	-8730
backs	-8731
▁equality	-8732
olar	-8733
▁Hold	-8734
▁passengers	-8735
▁unions	-8736
79	-8737
▁~	-8738
oded	-8739
▁bub	-8740
▁Hu	-8741
▁Eth	-8742
encing	-8743
▁Marsh	-8744
.-	-8745
dy	-8746
▁entitled	-8747
2%	-8748
▁ratio	-8749
▁tie	-8750
▁judges	-8751
▁headquarters	-8752
▁Est	-8753
▁blast	-8754
▁visiting	-8755
acket	-8756
hesis	-8757
▁tactics	-8758
▁tracking	-8759
▁monitoring	-8760
++	-8761
▁Pict	-8762
▁keys	-8763
▁measured	-8764
▁appointed	-8765
usalem	-8766
▁conservatives	-8767
▁cig	-8768
▁Mach	-8769
▁march	-8770
▁retirement	-8771
▁Ruby	-8772
▁Award	-8773
sl	-8774
▁Dutch	-8775
▁designs	-8776
▁17,	-8777
▁tea	-8778
▁Obamacare	-8779
▁Friend	-8780
▁programme	-8781
▁introduction	-8782
▁Beck	-8783
▁breaks	-8784
▁falls	-8785
▁overseas	-8786
▁GO	-8787
dney	-8788
irts	-8789
▁Nintendo	-8790
▁membership	-8791
▁1:	-8792
▁distract	-8793
alysis	-8794
▁capabilities	-8795
bow	-8796
▁landscape	-8797
▁politically	-8798
omes	-8799
▁Mult	-8800
▁naturally	-8801
▁legacy	-8802
▁Article	-8803
▁midfield	-8804
))	-8805
▁salt	-8806
theless	-8807
▁rescue	-8808
▁letting	-8809
▁quote	-8810
▁assass	-8811
itter	-8812
▁sty	-8813
▁ramp	-8814
ocument	-8815
▁representatives	-8816
plus	-8817
▁Girl	-8818
▁warn	-8819
▁helpful	-8820
▁concrete	-8821
▁populations	-8822
▁Trib	-8823
▁Bureau	-8824
▁Reddit	-8825
▁Ontario	-8826
RL	-8827
mat	-8828
▁Roberts	-8829
▁Kong	-8830
▁studied	-8831
▁mac	-8832
People	-8833
▁savings	-8834
▁employed	-8835
lahoma	-8836
▁blocked	-8837
▁popularity	-8838
fare	-8839
▁brown	-8840
▁documentary	-8841
▁10-	-8842
▁Deb	-8843
child	-8844
▁soil	-8845
▁drove	-8846
▁Ted	-8847
▁Psych	-8848
▁protein	-8849
▁survival	-8850
▁13,	-8851
▁Vill	-8852
▁forcing	-8853
uction	-8854
▁arrive	-8855
▁gal	-8856
abeth	-8857
▁shopping	-8858
LA	-8859
VE	-8860
hop	-8861
▁Som	-8862
▁Tech	-8863
aeda	-8864
7%	-8865
▁compare	-8866
▁parallel	-8867
▁firing	-8868
▁Utah	-8869
▁rounds	-8870
▁targeting	-8871
Trump	-8872
▁ec	-8873
iate	-8874
▁Left	-8875
▁Leon	-8876
▁wider	-8877
▁grid	-8878
aware	-8879
▁Cooper	-8880
4)	-8881
▁$6	-8882
▁Gary	-8883
▁None	-8884
▁trave	-8885
▁instrument	-8886
▁guitar	-8887
iece	-8888
ught	-8889
bridge	-8890
▁artific	-8891
▁centers	-8892
▁Much	-8893
▁Capital	-8894
▁windows	-8895
▁graduate	-8896
▁satellite	-8897
-19	-8898
cut	-8899
crib	-8900
▁Sab	-8901
▁consent	-8902
▁landing	-8903
▁prisoners	-8904
▁pursue	-8905
pton	-8906
▁wra	-8907
▁fool	-8908
jud	-8909
ji	-8910
▁GT	-8911
elson	-8912
▁Jerusalem	-8913
▁affordable	-8914
▁errors	-8915
▁saving	-8916
▁predicted	-8917
▁Bruce	-8918
▁abroad	-8919
ctic	-8920
ested	-8921
▁ordinary	-8922
▁acquired	-8923
ahu	-8924
▁clar	-8925
▁supplies	-8926
die	-8927
ijing	-8928
TT	-8929
▁Magic	-8930
king	-8931
▁pipeline	-8932
▁dismissed	-8933
made	-8934
only	-8935
▁jun	-8936
archy	-8937
▁assign	-8938
▁hoped	-8939
▁scientist	-8940
▁generations	-8941
▁presidency	-8942
▁whenever	-8943
,000.	-8944
press	-8945
▁waves	-8946
▁circle	-8947
▁monthly	-8948
▁21,	-8949
▁Know	-8950
▁Andre	-8951
▁experiments	-8952
UST	-8953
opher	-8954
▁cance	-8955
▁clock	-8956
ederation	-8957
odox	-8958
▁ves	-8959
resident	-8960
▁butt	-8961
afe	-8962
▁Bridge	-8963
▁render	-8964
▁demanding	-8965
▁Others	-8966
▁burning	-8967
▁Oklahoma	-8968
ouri	-8969
▁waters	-8970
▁submitted	-8971
▁Lt	-8972
▁swim	-8973
▁Bible	-8974
▁dust	-8975
▁absor	-8976
▁brilliant	-8977
49	-8978
emed	-8979
oret	-8980
▁les	-8981
48	-8982
▁DO	-8983
▁breath	-8984
▁Early	-8985
▁violation	-8986
▁Les	-8987
▁Moreover	-8988
ped	-8989
▁Cro	-8990
▁cul	-8991
▁Belg	-8992
▁25,	-8993
rooms	-8994
▁fing	-8995
iamond	-8996
▁domain	-8997
▁Harvard	-8998
▁Hur	-8999
▁Silver	-9000
▁CA	-9001
gage	-9002
organ	-9003
aration	-9004
▁Represent	-9005
▁spokeswoman	-9006
Star	-9007
▁lunch	-9008
▁Bud	-9009
▁Tok	-9010
▁Custom	-9011
▁inches	-9012
▁Galaxy	-9013
▁settled	-9014
▁prepar	-9015
aki	-9016
abet	-9017
▁30,	-9018
▁Ever	-9019
▁Trade	-9020
▁skept	-9021
▁Az	-9022
▁burden	-9023
▁adventure	-9024
▁Mess	-9025
▁stages	-9026
ctr	-9027
▁Yemen	-9028
▁trials	-9029
▁Governor	-9030
▁testimony	-9031
iley	-9032
▁Cra	-9033
▁hung	-9034
Qu	-9035
ded	-9036
▁okay	-9037
▁threatening	-9038
don	-9039
fol	-9040
▁Capt	-9041
▁shame	-9042
▁2:	-9043
eters	-9044
▁drives	-9045
▁persons	-9046
▁ratings	-9047
▁transactions	-9048
olves	-9049
▁Bloom	-9050
▁mathem	-9051
▁execution	-9052
rient	-9053
▁Oakland	-9054
▁cognitive	-9055
alia	-9056
enez	-9057
▁unpre	-9058
▁urged	-9059
▁fro	-9060
▁Eliz	-9061
▁objective	-9062
▁Bi	-9063
▁senator	-9064
even	-9065
olph	-9066
▁anniversary	-9067
▁odds	-9068
▁tips	-9069
▁discour	-9070
▁simultane	-9071
▁Word	-9072
▁releases	-9073
▁Management	-9074
76	-9075
▁Mit	-9076
▁toxic	-9077
▁shadow	-9078
lee	-9079
▁fate	-9080
▁Pentagon	-9081
▁fur	-9082
▁Quest	-9083
▁unexpected	-9084
etch	-9085
▁Uber	-9086
▁disorder	-9087
▁universal	-9088
▁ED	-9089
eals	-9090
▁Sa	-9091
▁bread	-9092
▁approached	-9093
isons	-9094
▁Jere	-9095
▁deny	-9096
▁fighter	-9097
▁pig	-9098
ennis	-9099
▁calm	-9100
▁rocket	-9101
▁broader	-9102
▁servers	-9103
asty	-9104
▁Scottish	-9105
atar	-9106
orous	-9107
▁Simon	-9108
▁reliable	-9109
orship	-9110
▁bonus	-9111
▁Everyone	-9112
▁module	-9113
▁Assembly	-9114
▁requested	-9115
▁cooperation	-9116
acts	-9117
▁trillion	-9118
▁impression	-9119
▁Beijing	-9120
31	-9121
irlf	-9122
▁Comey	-9123
▁stem	-9124
▁hyper	-9125
▁Murray	-9126
▁tab	-9127
▁Brexit	-9128
Hz	-9129
▁civilian	-9130
asant	-9131
ishop	-9132
▁forecast	-9133
▁secondary	-9134
▁bias	-9135
▁Libya	-9136
▁beauty	-9137
▁differently	-9138
▁Olympic	-9139
▁wealthy	-9140
irlfriend	-9141
▁Sydney	-9142
▁2007,	-9143
▁argues	-9144
▁Da	-9145
▁pron	-9146
▁>>	-9147
▁innocent	-9148
▁striking	-9149
oenix	-9150
▁rush	-9151
through	-9152
▁Gordon	-9153
▁staying	-9154
▁tiss	-9155
▁Charlie	-9156
▁encounter	-9157
▁veterans	-9158
▁celebrate	-9159
▁Ent	-9160
▁provision	-9161
▁stability	-9162
▁comprehensive	-9163
▁(1)	-9164
held	-9165
▁chest	-9166
▁preparing	-9167
▁arguing	-9168
▁kilomet	-9169
▁producers	-9170
▁Gulf	-9171
▁phrase	-9172
▁demonstrate	-9173
72	-9174
▁wedd	-9175
▁Staff	-9176
▁weigh	-9177
cur	-9178
▁sear	-9179
▁Li	-9180
math	-9181
▁phenomenon	-9182
▁importantly	-9183
bits	-9184
mind	-9185
▁13.	-9186
▁YOU	-9187
▁mole	-9188
▁restaurants	-9189
pha	-9190
▁stored	-9191
▁Executive	-9192
CO	-9193
▁DV	-9194
bury	-9195
▁ages	-9196
▁Would	-9197
▁rooms	-9198
----------------	-9199
▁Chelsea	-9200
▁reveals	-9201
▁newsletter	-9202
Now	-9203
zing	-9204
▁difficulty	-9205
▁).	-9206
iano	-9207
▁stepped	-9208
▁childhood	-9209
▁mini	-9210
▁anxiety	-9211
▁smoking	-9212
▁dub	-9213
▁tens	-9214
▁Should	-9215
▁questioned	-9216
aved	-9217
▁Fal	-9218
▁Had	-9219
igious	-9220
▁sequence	-9221
they	-9222
▁mit	-9223
icism	-9224
▁actively	-9225
▁Therefore	-9226
ika	-9227
▁Roll	-9228
minute	-9229
▁pointing	-9230
Can	-9231
▁instructions	-9232
▁consideration	-9233
▁Priv	-9234
▁maintained	-9235
▁introduce	-9236
IF	-9237
conf	-9238
▁flags	-9239
▁CS	-9240
hatt	-9241
▁Rest	-9242
mans	-9243
▁gest	-9244
▁Support	-9245
omed	-9246
▁Vice	-9247
acco	-9248
eria	-9249
unes	-9250
▁hal	-9251
▁nin	-9252
ompson	-9253
fr	-9254
▁Son	-9255
▁superior	-9256
▁streaming	-9257
▁prosecutors	-9258
▁Iv	-9259
▁outrage	-9260
▁Hawai	-9261
▁riding	-9262
ceptions	-9263
▁clothing	-9264
▁distingu	-9265
NS	-9266
olds	-9267
▁analyst	-9268
▁deserve	-9269
break	-9270
▁smell	-9271
▁dating	-9272
▁museum	-9273
▁judgment	-9274
▁struggled	-9275
▁highlights	-9276
▁quoted	-9277
aga	-9278
▁Bal	-9279
▁2010.	-9280
▁sorts	-9281
▁propaganda	-9282
▁Boe	-9283
▁bab	-9284
▁grade	-9285
▁Dur	-9286
▁birds	-9287
erg	-9288
▁100%	-9289
ounding	-9290
cedented	-9291
aria	-9292
erts	-9293
mony	-9294
walk	-9295
▁Gil	-9296
▁roof	-9297
▁relax	-9298
▁missions	-9299
itol	-9300
▁counterpart	-9301
▁Nev	-9302
▁Access	-9303
▁surely	-9304
▁Ve	-9305
▁reverse	-9306
▁Jenn	-9307
▁shield	-9308
▁banking	-9309
▁implications	-9310
▁deadly	-9311
▁assumed	-9312
▁transit	-9313
▁focusing	-9314
▁legislative	-9315
▁22,	-9316
▁Crime	-9317
▁gross	-9318
▁spots	-9319
▁congressional	-9320
html	-9321
▁Being	-9322
▁repeat	-9323
▁weekly	-9324
▁entreprene	-9325
▁Hart	-9326
▁exha	-9327
▁Clark	-9328
▁dying	-9329
▁loose	-9330
▁sevent	-9331
▁addresses	-9332
▁healthcare	-9333
▁Affairs	-9334
atern	-9335
▁Case	-9336
▁Vietnam	-9337
▁channels	-9338
▁puzz	-9339
left	-9340
▁chicken	-9341
ses	-9342
Some	-9343
▁19,	-9344
▁Imm	-9345
itudes	-9346
▁Hamilton	-9347
▁thorough	-9348
▁Page	-9349
▁rookie	-9350
▁Palestinians	-9351
▁Lam	-9352
▁knee	-9353
race	-9354
▁wounded	-9355
▁precisely	-9356
▁mood	-9357
▁alarm	-9358
▁wanting	-9359
▁physically	-9360
▁Hand	-9361
▁passage	-9362
▁tremend	-9363
omy	-9364
▁crus	-9365
▁ease	-9366
▁hydro	-9367
▁economics	-9368
isa	-9369
▁acid	-9370
▁gent	-9371
▁intim	-9372
▁==	-9373
ova	-9374
▁Der	-9375
▁Until	-9376
▁hockey	-9377
AF	-9378
iki	-9379
lined	-9380
holders	-9381
rection	-9382
pa	-9383
bered	-9384
▁Hong	-9385
▁smile	-9386
▁Berlin	-9387
▁borders	-9388
▁Download	-9389
izer	-9390
uper	-9391
▁investigations	-9392
ogy	-9393
▁shoes	-9394
▁semi	-9395
▁Sound	-9396
duction	-9397
▁dominant	-9398
Id	-9399
▁24,	-9400
▁soccer	-9401
▁Digital	-9402
▁kitchen	-9403
▁reforms	-9404
▁procedure	-9405
▁41	-9406
asury	-9407
▁lapt	-9408
▁assigned	-9409
player	-9410
▁Total	-9411
▁educational	-9412
▁playoffs	-9413
▁abilities	-9414
ois	-9415
▁Store	-9416
▁cream	-9417
▁hospitals	-9418
▁28,	-9419
onder	-9420
▁divor	-9421
▁participation	-9422
▁dialogue	-9423
▁remarkable	-9424
▁greatly	-9425
▁coaching	-9426
▁PD	-9427
iffs	-9428
▁cow	-9429
▁gif	-9430
aders	-9431
apolis	-9432
hard	-9433
ierce	-9434
▁Order	-9435
▁Batman	-9436
▁Opp	-9437
trans	-9438
▁Think	-9439
▁enhance	-9440
▁harassment	-9441
▁Marx	-9442
▁tweets	-9443
▁spectrum	-9444
9%	-9445
▁coinc	-9446
▁delic	-9447
▁competing	-9448
▁smartphone	-9449
▁PH	-9450
▁Ark	-9451
▁facilit	-9452
▁Thompson	-9453
▁meaningful	-9454
▁Kick	-9455
orious	-9456
▁na	-9457
▁23,	-9458
▁Jean	-9459
isk	-9460
▁industries	-9461
▁Furthermore	-9462
rif	-9463
▁silence	-9464
▁memories	-9465
▁indicates	-9466
▁capitalism	-9467
ailed	-9468
▁persu	-9469
▁Michel	-9470
▁clinical	-9471
PP	-9472
cest	-9473
▁McK	-9474
▁endorse	-9475
▁whereas	-9476
▁consensus	-9477
▁blockchain	-9478
▁investments	-9479
▁stere	-9480
▁pocket	-9481
enter	-9482
▁pulling	-9483
▁ministry	-9484
▁perceived	-9485
▁PA	-9486
After	-9487
▁Economic	-9488
▁diseases	-9489
▁hopefully	-9490
base	-9491
▁Assad	-9492
▁dispute	-9493
▁promoting	-9494
▁SE	-9495
▁insult	-9496
▁charity	-9497
ele	-9498
▁bowl	-9499
▁pill	-9500
▁picking	-9501
▁accessible	-9502
▁executives	-9503
▁surviv	-9504
▁requiring	-9505
800	-9506
▁Ox	-9507
Just	-9508
▁Box	-9509
▁fabric	-9510
▁substance	-9511
BM	-9512
lla	-9513
say	-9514
riors	-9515
▁nerv	-9516
AND	-9517
▁Log	-9518
▁cler	-9519
▁seed	-9520
▁Consider	-9521
▁guidelines	-9522
▁presentation	-9523
aver	-9524
▁Burn	-9525
gered	-9526
▁awarded	-9527
▁custody	-9528
▁aer	-9529
▁bin	-9530
▁bot	-9531
▁beings	-9532
▁Online	-9533
▁legally	-9534
▁manifest	-9535
▁overcome	-9536
ethe	-9537
▁echo	-9538
vertisements	-9539
▁lux	-9540
▁alter	-9541
8%	-9542
▁memo	-9543
▁hosted	-9544
▁partly	-9545
▁26,	-9546
▁Bol	-9547
▁opens	-9548
▁autonom	-9549
▁underlying	-9550
▁psychological	-9551
▁Could	-9552
akh	-9553
umble	-9554
▁beach	-9555
▁tut	-9556
icity	-9557
▁gate	-9558
▁tap	-9559
after	-9560
▁stance	-9561
▁theories	-9562
▁discussing	-9563
sect	-9564
▁dish	-9565
▁timing	-9566
▁contacted	-9567
▁displayed	-9568
iture	-9569
▁scrut	-9570
▁punishment	-9571
ui	-9572
▁120	-9573
▁voices	-9574
▁formation	-9575
▁Third	-9576
▁Captain	-9577
▁donations	-9578
▁Tax	-9579
▁drone	-9580
▁variable	-9581
▁helic	-9582
▁emerging	-9583
▁("	-9584
ateral	-9585
▁Talib	-9586
emic	-9587
▁ans	-9588
author	-9589
▁Elizabeth	-9590
▁promising	-9591
.0	-9592
▁blank	-9593
▁MLS	-9594
owski	-9595
▁utility	-9596
▁centuries	-9597
▁engineers	-9598
▁consciousness	-9599
SL	-9600
alling	-9601
▁Station	-9602
▁vig	-9603
▁Local	-9604
▁tired	-9605
atively	-9606
▁openly	-9607
▁shipping	-9608
▁roy	-9609
party	-9610
▁tonight	-9611
▁strategies	-9612
▁Nothing	-9613
▁studying	-9614
▁-->	-9615
▁stops	-9616
▁citing	-9617
▁defending	-9618
▁contribution	-9619
-12	-9620
mers	-9621
▁eager	-9622
▁revers	-9623
▁battles	-9624
itual	-9625
▁Things	-9626
▁lineup	-9627
▁rebels	-9628
was	-9629
▁CON	-9630
▁ele	-9631
▁Table	-9632
▁possess	-9633
week	-9634
▁$20	-9635
scribe	-9636
▁torture	-9637
▁gathering	-9638
UM	-9639
Yes	-9640
step	-9641
berry	-9642
▁$100	-9643
▁fled	-9644
ocolate	-9645
▁frequency	-9646
▁preferred	-9647
TER	-9648
ito	-9649
▁Yan	-9650
▁pharm	-9651
▁inspect	-9652
▁Rac	-9653
▁Anna	-9654
▁Disc	-9655
igenous	-9656
▁backing	-9657
portation	-9658
▁Additionally	-9659
iev	-9660
assy	-9661
agh	-9662
▁1.5	-9663
▁Sav	-9664
▁Cole	-9665
ributes	-9666
▁associate	-9667
ported	-9668
▁recruit	-9669
▁athletes	-9670
VP	-9671
igate	-9672
▁Stew	-9673
▁fundra	-9674
uten	-9675
▁unfair	-9676
gus	-9677
▁Bow	-9678
▁46	-9679
▁Harper	-9680
▁managing	-9681
▁loves	-9682
▁damaged	-9683
▁eligible	-9684
▁enthusi	-9685
5]	-9686
400	-9687
▁explaining	-9688
▁43	-9689
▁arr	-9690
orable	-9691
▁Leader	-9692
▁Gh	-9693
inator	-9694
▁Tennes	-9695
▁Manning	-9696
▁managers	-9697
oln	-9698
▁info	-9699
▁creatures	-9700
▁acknowledge	-9701
stal	-9702
▁Vik	-9703
watch	-9704
lando	-9705
▁Heart	-9706
▁arts	-9707
Reuters	-9708
88	-9709
▁Ze	-9710
▁(0.	-9711
▁Perry	-9712
▁picks	-9713
▁tempor	-9714
▁ceremony	-9715
▁dreams	-9716
▁instant	-9717
▁procedures	-9718
▁institution	-9719
herent	-9720
▁Pitts	-9721
▁compat	-9722
js	-9723
▁bold	-9724
▁lift	-9725
▁Phoenix	-9726
▁requirement	-9727
▁architecture	-9728
ptions	-9729
▁arrival	-9730
agic	-9731
▁bow	-9732
▁nic	-9733
▁helicop	-9734
▁discount	-9735
▁Occ	-9736
annon	-9737
▁fossil	-9738
▁Sheriff	-9739
▁Remember	-9740
osa	-9741
▁glad	-9742
▁merch	-9743
▁removal	-9744
▁Du	-9745
Sc	-9746
eness	-9747
▁therapy	-9748
▁unprecedented	-9749
▁Future	-9750
▁regulatory	-9751
▁obsc	-9752
▁sovere	-9753
▁27,	-9754
▁emp	-9755
▁span	-9756
▁followers	-9757
ighth	-9758
▁hire	-9759
▁Wales	-9760
▁recre	-9761
▁trends	-9762
bu	-9763
▁lect	-9764
▁undert	-9765
▁Festival	-9766
▁suspects	-9767
urg	-9768
▁collaps	-9769
rc	-9770
▁Tesla	-9771
▁muscle	-9772
▁racing	-9773
▁perception	-9774
div	-9775
▁bottle	-9776
300	-9777
▁Area	-9778
▁aims	-9779
▁Arsenal	-9780
▁cheaper	-9781
▁convince	-9782
yes	-9783
▁CL	-9784
▁FA	-9785
elle	-9786
▁tables	-9787
▁moderate	-9788
▁$7	-9789
▁outlets	-9790
▁invasion	-9791
▁searching	-9792
▁Independent	-9793
▁Kentucky	-9794
▁sections	-9795
▁delegates	-9796
izza	-9797
▁Bul	-9798
▁Delhi	-9799
▁arbit	-9800
▁expanding	-9801
▁genre	-9802
▁Hal	-9803
necess	-9804
▁Russell	-9805
▁$2.	-9806
▁29,	-9807
▁Sud	-9808
▁10,000	-9809
▁recipe	-9810
cosystem	-9811
▁Mountain	-9812
▁principal	-9813
▁organisation	-9814
Up	-9815
▁permit	-9816
▁Antonio	-9817
▁billions	-9818
▁defeated	-9819
▁employers	-9820
vision	-9821
▁speaker	-9822
▁Continue	-9823
▁CB	-9824
▁Khan	-9825
inally	-9826
▁amendment	-9827
——	-9828
roph	-9829
▁graphics	-9830
▁Alan	-9831
▁Poll	-9832
▁occurs	-9833
▁pollution	-9834
▁extraordinary	-9835
▁rend	-9836
▁Missouri	-9837
▁diplomatic	-9838
Ob	-9839
▁Ban	-9840
▁aged	-9841
▁categories	-9842
aya	-9843
arre	-9844
▁shell	-9845
05	-9846
▁193	-9847
▁prize	-9848
▁spell	-9849
▁Montreal	-9850
oz	-9851
▁escal	-9852
enezuel	-9853
▁Photos	-9854
▁topics	-9855
▁segment	-9856
▁rhetoric	-9857
kee	-9858
▁Han	-9859
market	-9860
▁Doctor	-9861
▁deployed	-9862
▁Protection	-9863
▁20-	-9864
▁owns	-9865
▁setup	-9866
Int	-9867
▁Tai	-9868
▁Pers	-9869
▁cock	-9870
olving	-9871
▁elder	-9872
instein	-9873
▁upload	-9874
▁rolling	-9875
▁weakness	-9876
▁dies	-9877
alog	-9878
▁alias	-9879
▁posting	-9880
2-	-9881
eling	-9882
isdom	-9883
▁punch	-9884
owned	-9885
▁periods	-9886
▁interaction	-9887
mir	-9888
istical	-9889
▁fights	-9890
unicipal	-9891
▁pleased	-9892
▁Convention	-9893
ls	-9894
ALL	-9895
tra	-9896
▁interior	-9897
▁hip	-9898
▁poison	-9899
▁commander	-9900
47	-9901
▁bene	-9902
OK	-9903
▁BM	-9904
news	-9905
▁Player	-9906
▁Instagram	-9907
▁Move	-9908
▁Channel	-9909
▁constitu	-9910
▁communicate	-9911
▁sed	-9912
commun	-9913
▁magnet	-9914
▁compensation	-9915
▁DE	-9916
▁Level	-9917
tenance	-9918
▁Dragon	-9919
▁distur	-9920
▁couples	-9921
Ad	-9922
oli	-9923
▁vend	-9924
▁bands	-9925
▁frequent	-9926
▁inequality	-9927
awks	-9928
▁Near	-9929
▁Ocean	-9930
▁biological	-9931
▁1950	-9932
▁Hung	-9933
▁sits	-9934
▁carries	-9935
▁eliminate	-9936
acher	-9937
quest	-9938
▁unve	-9939
▁beating	-9940
▁signature	-9941
▁attractive	-9942
▁!	-9943
build	-9944
▁math	-9945
alties	-9946
▁demanded	-9947
angle	-9948
▁Leban	-9949
▁answered	-9950
▁instances	-9951
check	-9952
rowing	-9953
▁Portug	-9954
▁deadline	-9955
lude	-9956
▁Ref	-9957
const	-9958
▁Aaron	-9959
▁badly	-9960
hr	-9961
rix	-9962
▁nose	-9963
▁roots	-9964
▁Find	-9965
ipedia	-9966
▁analysts	-9967
▁nurs	-9968
▁Pant	-9969
▁notable	-9970
oca	-9971
Cont	-9972
▁grap	-9973
▁camps	-9974
▁Change	-9975
istol	-9976
▁Writ	-9977
▁Ku	-9978
▁landed	-9979
▁anonymous	-9980
▁disappointed	-9981
▁14.	-9982
▁Blood	-9983
▁Giants	-9984
▁traged	-9985
grade	-9986
throp	-9987
▁drunk	-9988
▁sixth	-9989
▁soldier	-9990
thodox	-9991
▁refuse	-9992
▁adviser	-9993
▁modified	-9994
▁clip	-9995
estyle	-9996
▁NS	-9997
▁Rome	-9998
▁contemporary	-9999
▁Official	-10000
▁Christopher	-10001
opp	-10002
▁integration	-10003
/10	-10004
▁logo	-10005
▁parad	-10006
▁bullet	-10007
▁transaction	-10008
▁Marg	-10009
arency	-10010
▁accum	-10011
arted	-10012
▁tons	-10013
▁migrants	-10014
▁Bor	-10015
▁GDP	-10016
▁Raj	-10017
acles	-10018
▁isolated	-10019
De	-10020
Ind	-10021
mic	-10022
brid	-10023
▁Gib	-10024
section	-10025
▁47	-10026
hire	-10027
▁lessons	-10028
▁neighbors	-10029
PL	-10030
▁accompan	-10031
▁IM	-10032
▁Eve	-10033
▁Taliban	-10034
ixture	-10035
▁foods	-10036
▁talented	-10037
▁prospects	-10038
▁Rs	-10039
▁jumped	-10040
▁Venezuel	-10041
▁coup	-10042
▁libr	-10043
vi	-10044
bes	-10045
▁publishing	-10046
▁Andy	-10047
▁interviewed	-10048
4%	-10049
▁Trust	-10050
▁Resp	-10051
▁Reagan	-10052
▁hanging	-10053
▁organic	-10054
▁emotions	-10055
▁encouraging	-10056
▁dramatically	-10057
▁Craig	-10058
▁adopt	-10059
▁subsc	-10060
▁15.	-10061
tainment	-10062
▁registration	-10063
hist	-10064
▁approaches	-10065
▁towns	-10066
▁inquiry	-10067
▁Tennessee	-10068
▁irre	-10069
istant	-10070
▁Coal	-10071
screen	-10072
▁silent	-10073
▁prompted	-10074
dict	-10075
▁resolve	-10076
▁everyday	-10077
▁configuration	-10078
▁corrupt	-10079
▁ministers	-10080
ikh	-10081
▁Griff	-10082
▁collaboration	-10083
▁SD	-10084
incoln	-10085
▁heroes	-10086
▁recalled	-10087
hattan	-10088
isition	-10089
▁Product	-10090
▁correctly	-10091
▁Brooklyn	-10092
iac	-10093
▁jihad	-10094
▁engineer	-10095
▁manufacturers	-10096
▁Film	-10097
▁concepts	-10098
▁Spir	-10099
▁Intel	-10100
▁Phill	-10101
▁pa	-10102
▁guid	-10103
▁comics	-10104
▁mystery	-10105
▁homosexual	-10106
wa	-10107
▁Ts	-10108
▁Jane	-10109
▁holes	-10110
▁references	-10111
.[10	-10112
▁breast	-10113
▁Orlando	-10114
▁briefly	-10115
▁desperate	-10116
lihood	-10117
▁Jeremy	-10118
▁cheese	-10119
▁imposed	-10120
scar	-10121
▁lad	-10122
chell	-10123
▁annoy	-10124
▁artificial	-10125
▁sheet	-10126
▁Chairman	-10127
▁Nevada	-10128
tc	-10129
ylum	-10130
▁Vlad	-10131
▁loop	-10132
▁Studies	-10133
1-	-10134
▁lesson	-10135
/4	-10136
ibl	-10137
▁recon	-10138
▁ecosystem	-10139
▁CR	-10140
▁yeah	-10141
income	-10142
▁probe	-10143
tarian	-10144
▁colour	-10145
▁traveling	-10146
▁girlfriend	-10147
▁sessions	-10148
▁describing	-10149
▁suspension	-10150
▁TR	-10151
amps	-10152
▁arc	-10153
▁quit	-10154
▁yell	-10155
▁Comb	-10156
▁Name	-10157
.[1]	-10158
▁genes	-10159
▁confused	-10160
▁Band	-10161
▁Gill	-10162
ials	-10163
bourne	-10164
▁sentenced	-10165
▁(6	-10166
▁Bes	-10167
▁minimal	-10168
▁BC	-10169
▁knock	-10170
-15	-10171
elve	-10172
........	-10173
▁cens	-10174
▁Marine	-10175
▁advocate	-10176
mented	-10177
▁obser	-10178
▁Indones	-10179
▁violations	-10180
▁performances	-10181
▁Var	-10182
▁Pittsburgh	-10183
▁Eb	-10184
▁insight	-10185
▁thro	-10186
▁correl	-10187
▁reserved	-10188
▁Hug	-10189
▁credits	-10190
TON	-10191
▁NO	-10192
▁vert	-10193
▁Standard	-10194
▁defender	-10195
▁recommendations	-10196
▁Kal	-10197
▁mile	-10198
▁2006,	-10199
▁constitution	-10200
▁revolutionary	-10201
▁Mario	-10202
▁signals	-10203
▁pregnant	-10204
▁volunteers	-10205
▁da	-10206
▁Gro	-10207
▁brutal	-10208
▁relation	-10209
▁promotion	-10210
▁Wy	-10211
▁barg	-10212
▁buck	-10213
▁Adams	-10214
▁militants	-10215
▁inspiration	-10216
▁Pa	-10217
some	-10218
▁stro	-10219
▁Steel	-10220
orge	-10221
▁gut	-10222
▁Orle	-10223
▁bell	-10224
▁pride	-10225
▁seized	-10226
▁boxes	-10227
▁stack	-10228
▁refers	-10229
▁surrounded	-10230
▁Entertainment	-10231
▁Gard	-10232
▁scar	-10233
▁oppose	-10234
▁repair	-10235
▁JavaScript	-10236
▁maintaining	-10237
▁underground	-10238
▁Climate	-10239
▁Reserve	-10240
▁Alliance	-10241
▁compr	-10242
▁labour	-10243
▁functional	-10244
▁Try	-10245
father	-10246
iens	-10247
▁Wright	-10248
▁attending	-10249
▁EC	-10250
▁occasionally	-10251
▁orbit	-10252
▁outcomes	-10253
▁Type	-10254
▁profound	-10255
UC	-10256
imize	-10257
▁Mail	-10258
▁fatal	-10259
▁Editor	-10260
▁wedding	-10261
▁Authority	-10262
▁Interest	-10263
ds	-10264
acre	-10265
agen	-10266
▁Edit	-10267
▁Qual	-10268
ricane	-10269
▁Metro	-10270
▁shocked	-10271
igration	-10272
▁existed	-10273
▁intellig	-10274
▁explosion	-10275
▁CC	-10276
▁16.	-10277
▁Manhattan	-10278
▁ridiculous	-10279
▁euro	-10280
ishers	-10281
▁adequ	-10282
▁abstract	-10283
▁Tel	-10284
▁speculation	-10285
cour	-10286
▁EPA	-10287
▁pir	-10288
books	-10289
human	-10290
▁bird	-10291
▁Kings	-10292
▁forum	-10293
▁characteristics	-10294
cal	-10295
▁fo	-10296
oting	-10297
▁intr	-10298
▁Model	-10299
▁MPs	-10300
▁Barb	-10301
▁Warner	-10302
▁Treasury	-10303
pg	-10304
▁sne	-10305
rock	-10306
▁FOR	-10307
▁Summer	-10308
▁convert	-10309
▁momentum	-10310
▁Everything	-10311
▁acceptable	-10312
Os	-10313
atus	-10314
▁Fant	-10315
▁Hamp	-10316
▁asset	-10317
starter	-10318
▁kicked	-10319
▁Capitol	-10320
▁journalism	-10321
sub	-10322
While	-10323
▁nervous	-10324
▁Na	-10325
▁Wr	-10326
luded	-10327
▁passenger	-10328
▁teammates	-10329
GE	-10330
inge	-10331
▁subur	-10332
ILL	-10333
ixon	-10334
rank	-10335
▁Duke	-10336
▁terr	-10337
▁Jerry	-10338
▁summit	-10339
▁Library	-10340
▁Stewart	-10341
block	-10342
▁steady	-10343
▁choosing	-10344
▁Drug	-10345
▁mask	-10346
▁Univers	-10347
▁designer	-10348
▁reass	-10349
▁suspic	-10350
▁Robinson	-10351
▁struggles	-10352
▁Place	-10353
▁Orleans	-10354
gets	-10355
▁Marc	-10356
▁Based	-10357
▁ancest	-10358
▁nowhere	-10359
▁bacteria	-10360
▁compromise	-10361
▁witnesses	-10362
▁fleet	-10363
▁engines	-10364
▁BL	-10365
▁knife	-10366
▁shirt	-10367
bound	-10368
▁athe	-10369
▁neur	-10370
▁Rubio	-10371
▁cabinet	-10372
▁fingers	-10373
▁ideology	-10374
ulty	-10375
ailable	-10376
reshold	-10377
▁Hitler	-10378
▁Mother	-10379
TML	-10380
will	-10381
▁Nether	-10382
▁fucking	-10383
▁opposing	-10384
▁removing	-10385
▁Aren	-10386
▁lifetime	-10387
endar	-10388
▁assemb	-10389
▁Ka	-10390
ormal	-10391
white	-10392
▁Nelson	-10393
▁mirror	-10394
▁Officer	-10395
▁strengthen	-10396
▁eggs	-10397
▁confusion	-10398
▁SU	-10399
▁robust	-10400
▁jer	-10401
▁evac	-10402
73	-10403
has	-10404
grad	-10405
▁guests	-10406
▁professionals	-10407
▁representation	-10408
immer	-10409
ophob	-10410
▁Russians	-10411
▁Ukrainian	-10412
5)	-10413
oga	-10414
aste	-10415
▁2.0	-10416
▁Sin	-10417
▁podcast	-10418
▁Stanford	-10419
may	-10420
igg	-10421
card	-10422
ocated	-10423
Today	-10424
▁slot	-10425
▁organis	-10426
▁exclusively	-10427
hero	-10428
▁fails	-10429
▁loaded	-10430
▁Lincoln	-10431
▁chronic	-10432
▁considerable	-10433
96	-10434
▁Vo	-10435
▁deemed	-10436
▁expenses	-10437
▁peaceful	-10438
▁integrity	-10439
reck	-10440
▁Toy	-10441
▁packages	-10442
cor	-10443
attered	-10444
▁stating	-10445
▁ET	-10446
▁bits	-10447
▁swit	-10448
▁Within	-10449
▁butter	-10450
▁districts	-10451
▁dominated	-10452
good	-10453
▁True	-10454
election	-10455
▁Snowden	-10456
▁Cold	-10457
▁balls	-10458
▁Fact	-10459
strong	-10460
▁buried	-10461
ampa	-10462
▁Mun	-10463
▁occasional	-10464
gged	-10465
vernment	-10466
▁Section	-10467
▁sophistic	-10468
▁subscribe	-10469
Let	-10470
▁Tokyo	-10471
▁stats	-10472
▁Victoria	-10473
▁simultaneously	-10474
▁Emer	-10475
▁Fixed	-10476
▁Poland	-10477
▁scared	-10478
▁contrary	-10479
▁gameplay	-10480
▁Abu	-10481
▁figured	-10482
low	-10483
▁Round	-10484
▁hiring	-10485
▁evident	-10486
▁#1	-10487
▁Dick	-10488
▁Ottawa	-10489
▁flee	-10490
▁curious	-10491
▁Dal	-10492
▁gene	-10493
HA	-10494
▁Pope	-10495
▁Sche	-10496
▁Soft	-10497
▁leaked	-10498
▁Subscribe	-10499
▁Nik	-10500
▁decrease	-10501
thood	-10502
amous	-10503
▁Modi	-10504
▁speakers	-10505
KE	-10506
▁courage	-10507
▁engaging	-10508
▁Nazi	-10509
▁sexually	-10510
▁Mind	-10511
▁repeal	-10512
▁examine	-10513
▁expense	-10514
▁executed	-10515
▁forgotten	-10516
▁variables	-10517
leep	-10518
▁bases	-10519
▁Overall	-10520
▁alliance	-10521
imir	-10522
▁Cas	-10523
vation	-10524
▁birthday	-10525
▁criteria	-10526
▁electron	-10527
▁patent	-10528
▁desktop	-10529
▁senators	-10530
▁disappear	-10531
▁Nap	-10532
▁concerning	-10533
cop	-10534
iar	-10535
▁ingredients	-10536
▁los	-10537
▁tremendous	-10538
umph	-10539
▁Buy	-10540
▁Nich	-10541
▁dual	-10542
odge	-10543
▁flour	-10544
Fi	-10545
▁OR	-10546
▁lobb	-10547
rics	-10548
▁fel	-10549
▁lin	-10550
▁enabled	-10551
▁keyboard	-10552
▁attracted	-10553
▁caps	-10554
▁screw	-10555
▁(2)	-10556
▁Fif	-10557
▁USB	-10558
▁ignor	-10559
▁prost	-10560
istance	-10561
▁justify	-10562
abe	-10563
cap	-10564
▁Queens	-10565
▁monster	-10566
▁Stock	-10567
▁Building	-10568
:1	-10569
▁chaos	-10570
▁vocal	-10571
▁physics	-10572
▁challenged	-10573
izations	-10574
▁stimul	-10575
▁theater	-10576
▁unnecess	-10577
otte	-10578
▁2019	-10579
▁Luke	-10580
▁epic	-10581
▁defended	-10582
Rep	-10583
▁Tower	-10584
arians	-10585
▁dropping	-10586
non	-10587
vas	-10588
▁assembly	-10589
▁maintenance	-10590
87	-10591
▁Abd	-10592
▁Flash	-10593
▁electoral	-10594
stop	-10595
▁Holy	-10596
▁Jimmy	-10597
▁Mississ	-10598
df	-10599
NBC	-10600
mble	-10601
▁wondering	-10602
dep	-10603
▁52	-10604
▁avo	-10605
▁outf	-10606
security	-10607
▁households	-10608
▁boom	-10609
▁Father	-10610
▁donors	-10611
▁junior	-10612
▁volunt	-10613
via	-10614
▁1999	-10615
▁Collins	-10616
enh	-10617
▁Oil	-10618
utter	-10619
▁interpretation	-10620
appropri	-10621
▁inevitable	-10622
isd	-10623
▁Ni	-10624
arson	-10625
TR	-10626
oned	-10627
apore	-10628
▁embrace	-10629
adi	-10630
olid	-10631
▁31,	-10632
▁reserv	-10633
gate	-10634
▁Bir	-10635
▁Phys	-10636
▁expecting	-10637
May	-10638
bul	-10639
▁Hans	-10640
▁concert	-10641
▁tent	-10642
▁colleg	-10643
▁void	-10644
▁disabled	-10645
▁Publ	-10646
▁harsh	-10647
▁closest	-10648
▁Olympics	-10649
▁accuracy	-10650
▁developments	-10651
BN	-10652
oub	-10653
▁submit	-10654
▁transferred	-10655
stra	-10656
▁guards	-10657
▁applies	-10658
▁publish	-10659
istle	-10660
▁charging	-10661
▁uncertainty	-10662
▁recovered	-10663
ilst	-10664
▁Copyright	-10665
▁animation	-10666
▁printed	-10667
▁telephone	-10668
Se	-10669
pack	-10670
▁mice	-10671
▁blocking	-10672
▁similarly	-10673
.]	-10674
600	-10675
▁SN	-10676
▁Malays	-10677
▁Edition	-10678
▁bankrupt	-10679
▁prosecutor	-10680
▁1)	-10681
▁meal	-10682
MAN	-10683
▁CPU	-10684
▁Trek	-10685
looking	-10686
▁provider	-10687
▁);	-10688
.[11	-10689
ocur	-10690
▁gri	-10691
▁cinem	-10692
▁utter	-10693
istically	-10694
▁launching	-10695
99/	-10696
ateful	-10697
▁nationwide	-10698
▁functionality	-10699
▁FR	-10700
oker	-10701
▁GMT	-10702
▁Very	-10703
▁brands	-10704
onz	-10705
size	-10706
AB	-10707
▁$25	-10708
▁50%	-10709
▁packed	-10710
▁Command	-10711
▁proportion	-10712
▁FO	-10713
▁coin	-10714
▁antib	-10715
▁Medicare	-10716
▁certific	-10717
▁presents	-10718
▁Cuba	-10719
▁Reds	-10720
▁agreements	-10721
nan	-10722
▁Wiki	-10723
▁flavor	-10724
breaking	-10725
▁Between	-10726
▁uncomfort	-10727
▁surprisingly	-10728
idal	-10729
inst	-10730
▁circuit	-10731
▁Deep	-10732
▁evolved	-10733
▁guaranteed	-10734
olitan	-10735
▁provisions	-10736
▁researcher	-10737
▁Wi	-10738
aro	-10739
▁gym	-10740
▁Sport	-10741
▁embed	-10742
▁impacts	-10743
obb	-10744
anim	-10745
▁Kurdish	-10746
▁refugee	-10747
orneys	-10748
▁Netherlands	-10749
▁desp	-10750
▁Argent	-10751
▁checking	-10752
▁fer	-10753
▁chip	-10754
▁reluct	-10755
▁delight	-10756
▁Patriots	-10757
▁influenced	-10758
▁54	-10759
▁Inn	-10760
▁wet	-10761
▁mathemat	-10762
▁inaug	-10763
▁dependent	-10764
▁integrated	-10765
▁subsequently	-10766
wind	-10767
oning	-10768
uther	-10769
▁2009.	-10770
▁backs	-10771
▁Canadians	-10772
▁residential	-10773
nie	-10774
oft	-10775
oria	-10776
icked	-10777
anguage	-10778
Ps	-10779
▁Tam	-10780
keley	-10781
Station	-10782
▁250	-10783
▁hunting	-10784
▁emphasis	-10785
▁guidance	-10786
▁explicitly	-10787
gly	-10788
▁py	-10789
llor	-10790
▁Beh	-10791
▁Map	-10792
▁Pir	-10793
reek	-10794
▁strip	-10795
▁Louisiana	-10796
▁Dak	-10797
▁Date	-10798
▁burned	-10799
▁sleeping	-10800
▁Corporation	-10801
uz	-10802
▁Modern	-10803
▁significance	-10804
▁spo	-10805
▁Talk	-10806
▁lane	-10807
secutive	-10808
▁bol	-10809
▁endors	-10810
▁filter	-10811
▁Financial	-10812
▁conviction	-10813
omic	-10814
izarre	-10815
▁inher	-10816
▁combine	-10817
▁criminals	-10818
?’	-10819
apper	-10820
▁cops	-10821
ugby	-10822
▁tower	-10823
riminal	-10824
▁Block	-10825
▁survived	-10826
neg	-10827
▁rebuild	-10828
▁courtesy	-10829
▁Imp	-10830
▁modest	-10831
▁intimid	-10832
▁=>	-10833
▁Lad	-10834
▁2020	-10835
▁bother	-10836
▁Stanley	-10837
▁vaccine	-10838
▁Environmental	-10839
▁Fle	-10840
▁keen	-10841
limited	-10842
▁Mitchell	-10843
▁releasing	-10844
ERE	-10845
▁motivated	-10846
▁sustainable	-10847
▁wise	-10848
terror	-10849
▁bombs	-10850
▁settle	-10851
▁tragedy	-10852
oup	-10853
▁Yah	-10854
▁engagement	-10855
..."	-10856
test	-10857
overs	-10858
▁angle	-10859
▁experimental	-10860
▁1998	-10861
arios	-10862
ipher	-10863
▁patri	-10864
▁tanks	-10865
▁imprison	-10866
▁pleasure	-10867
▁investigated	-10868
▁inhab	-10869
▁formula	-10870
▁occasion	-10871
iors	-10872
▁202	-10873
ilation	-10874
▁Winter	-10875
▁absurd	-10876
▁routes	-10877
▁possibilities	-10878
ixel	-10879
▁Cry	-10880
ester	-10881
▁restore	-10882
▁invested	-10883
oj	-10884
▁Drive	-10885
achment	-10886
▁theoret	-10887
▁privilege	-10888
▁taxpayers	-10889
erent	-10890
▁Pinterest	-10891
▁lifestyle	-10892
?)	-10893
▁infant	-10894
▁killer	-10895
▁rolled	-10896
▁Medicaid	-10897
).[	-10898
ben	-10899
wich	-10900
▁cycl	-10901
▁shops	-10902
▁entity	-10903
▁Egyptian	-10904
ippi	-10905
▁18.	-10906
▁iter	-10907
▁mart	-10908
ressing	-10909
etheless	-10910
▁examined	-10911
ATCH	-10912
▁Mand	-10913
▁belt	-10914
▁beneath	-10915
▁expects	-10916
▁shelter	-10917
/3	-10918
▁Tan	-10919
armed	-10920
▁lean	-10921
rifice	-10922
▁accord	-10923
▁immune	-10924
iere	-10925
▁Niger	-10926
▁productive	-10927
Col	-10928
▁diver	-10929
▁recession	-10930
▁oxy	-10931
▁Tell	-10932
▁documented	-10933
PI	-10934
▁Pod	-10935
▁Prom	-10936
▁suck	-10937
▁bombing	-10938
▁preserve	-10939
▁checked	-10940
63	-10941
▁ric	-10942
forward	-10943
▁liberty	-10944
▁blamed	-10945
friendly	-10946
▁distribut	-10947
▁headlines	-10948
▁DJ	-10949
agine	-10950
ifier	-10951
▁bags	-10952
▁solo	-10953
▁accepting	-10954
▁Organization	-10955
TE	-10956
▁DVD	-10957
▁adap	-10958
▁bulk	-10959
▁ought	-10960
▁analys	-10961
▁luxury	-10962
boys	-10963
▁hub	-10964
inite	-10965
▁inex	-10966
▁creature	-10967
▁enact	-10968
▁surge	-10969
▁static	-10970
▁innovative	-10971
pen	-10972
▁jet	-10973
▁coins	-10974
▁regarded	-10975
▁continu	-10976
▁photographs	-10977
▁30-	-10978
▁Ven	-10979
▁Dean	-10980
▁immun	-10981
▁elabor	-10982
▁speeds	-10983
ulse	-10984
▁Magazine	-10985
▁politician	-10986
▁SEC	-10987
▁bip	-10988
▁Corp	-10989
▁Hampshire	-10990
▁5-	-10991
arget	-10992
▁HTML	-10993
▁mortgage	-10994
.“	-10995
▁hosts	-10996
▁creator	-10997
▁Ky	-10998
ardo	-10999
▁Lions	-11000
SD	-11001
bian	-11002
ollar	-11003
▁assists	-11004
▁ranking	-11005
being	-11006
▁poet	-11007
▁controller	-11008
▁lens	-11009
leading	-11010
▁venture	-11011
▁Campaign	-11012
▁Kr	-11013
lynn	-11014
leted	-11015
▁Hamas	-11016
▁McCon	-11017
▁complained	-11018
16.	-11019
ante	-11020
adesh	-11021
▁kiss	-11022
uating	-11023
Am	-11024
▁Ga	-11025
▁sake	-11026
▁Peace	-11027
▁dimin	-11028
▁produces	-11029
▁pregnancy	-11030
▁10%	-11031
million	-11032
▁Sessions	-11033
▁conflicts	-11034
large	-11035
▁earnings	-11036
▁projected	-11037
▁accusations	-11038
▁transparency	-11039
olas	-11040
▁ther	-11041
anyahu	-11042
▁theft	-11043
▁Forest	-11044
▁traded	-11045
▁promoted	-11046
▁departure	-11047
gov	-11048
▁fert	-11049
▁renewable	-11050
▁pm	-11051
▁Fight	-11052
▁carrier	-11053
Co	-11054
▁HIV	-11055
orate	-11056
▁Nash	-11057
▁anch	-11058
▁bone	-11059
▁Steam	-11060
▁asylum	-11061
▁employer	-11062
▁productivity	-11063
wed	-11064
▁2008.	-11065
▁Asked	-11066
▁poster	-11067
▁occupied	-11068
rah	-11069
▁bump	-11070
▁operated	-11071
▁reck	-11072
▁tear	-11073
▁Beyond	-11074
▁polling	-11075
▁algorithm	-11076
▁PlayStation	-11077
▁interactions	-11078
emit	-11079
▁Pear	-11080
▁drum	-11081
▁Larry	-11082
group	-11083
▁1000	-11084
iatric	-11085
▁Grant	-11086
▁Jacob	-11087
▁realistic	-11088
▁189	-11089
about	-11090
▁Cloud	-11091
▁sizes	-11092
▁Alaska	-11093
▁trailer	-11094
▁identical	-11095
▁awful	-11096
▁intrig	-11097
▁tissue	-11098
▁visits	-11099
▁Lawrence	-11100
▁missiles	-11101
▁stopping	-11102
▁17.	-11103
▁Rice	-11104
▁advent	-11105
▁awards	-11106
▁occupation	-11107
▁destination	-11108
offs	-11109
▁(10	-11110
merce	-11111
▁inbox	-11112
vironments	-11113
42	-11114
JP	-11115
”)	-11116
▁Nature	-11117
▁excuse	-11118
▁impressed	-11119
tery	-11120
▁Say	-11121
▁Posts	-11122
}}	-11123
dev	-11124
user	-11125
▁Gene	-11126
▁tears	-11127
▁cooking	-11128
▁mothers	-11129
▁painting	-11130
▁occasions	-11131
▁synd	-11132
▁Ronald	-11133
▁singer	-11134
▁flights	-11135
▁resemb	-11136
▁Swedish	-11137
▁compelling	-11138
▁torn	-11139
▁seeks	-11140
▁Knight	-11141
QL	-11142
▁meters	-11143
▁graphic	-11144
▁consecutive	-11145
▁participating	-11146
erald	-11147
▁2,000	-11148
▁Singapore	-11149
dog	-11150
town	-11151
zone	-11152
▁iPad	-11153
▁Singh	-11154
bitious	-11155
▁mandate	-11156
▁devastating	-11157
▁UI	-11158
▁Print	-11159
▁dirty	-11160
▁Fergus	-11161
ernand	-11162
▁raises	-11163
▁spotted	-11164
▁editorial	-11165
62	-11166
▁babies	-11167
citation	-11168
▁Legisl	-11169
▁displays	-11170
▁infection	-11171
▁manual	-11172
▁automatic	-11173
▁sons	-11174
▁vent	-11175
▁orient	-11176
▁firearms	-11177
laim	-11178
ping	-11179
▁Naz	-11180
graph	-11181
track	-11182
▁fits	-11183
▁fed	-11184
▁Looking	-11185
▁celebrated	-11186
irs	-11187
▁bicy	-11188
assion	-11189
▁globe	-11190
▁exploit	-11191
▁Vladimir	-11192
▁entrance	-11193
▁documentation	-11194
Res	-11195
▁Ow	-11196
bery	-11197
▁rhy	-11198
▁teeth	-11199
vo	-11200
▁ally	-11201
▁furn	-11202
▁Native	-11203
▁trains	-11204
▁detention	-11205
▁Mom	-11206
▁Sac	-11207
▁accompanied	-11208
▁Ub	-11209
▁influential	-11210
▁operator	-11211
▁prosecution	-11212
▁mm	-11213
▁2.5	-11214
▁Ian	-11215
▁handled	-11216
amine	-11217
▁Ward	-11218
mitted	-11219
▁wisdom	-11220
▁affects	-11221
("	-11222
.),	-11223
.[2]	-11224
▁Jen	-11225
charg	-11226
▁Domin	-11227
▁subtle	-11228
▁complain	-11229
forced	-11230
▁logical	-11231
▁reflects	-11232
Or	-11233
▁3:	-11234
ista	-11235
▁Anti	-11236
▁Against	-11237
▁chemicals	-11238
▁limitations	-11239
▁unfortunately	-11240
▁2)	-11241
▁burst	-11242
▁PL	-11243
▁voc	-11244
▁Whit	-11245
▁anonym	-11246
▁hiding	-11247
▁solely	-11248
▁Gre	-11249
▁vit	-11250
▁peer	-11251
▁Small	-11252
▁iconic	-11253
▁safely	-11254
▁McDonald	-11255
▁administrative	-11256
DC	-11257
▁leak	-11258
onduct	-11259
DR	-11260
urches	-11261
▁preventing	-11262
uels	-11263
▁Draft	-11264
▁cleared	-11265
▁fishing	-11266
▁reflected	-11267
vol	-11268
▁IV	-11269
iated	-11270
words	-11271
▁trips	-11272
▁verify	-11273
▁Netanyahu	-11274
such	-11275
▁Kyle	-11276
▁Soon	-11277
▁Commons	-11278
▁600	-11279
founder	-11280
Ab	-11281
bin	-11282
udeau	-11283
▁Baker	-11284
▁polar	-11285
▁addiction	-11286
una	-11287
oples	-11288
▁2005,	-11289
century	-11290
▁viable	-11291
▁FI	-11292
comp	-11293
xide	-11294
ppers	-11295
▁wore	-11296
rition	-11297
▁regret	-11298
▁constructed	-11299
▁UC	-11300
uter	-11301
▁beta	-11302
▁toss	-11303
incial	-11304
cat	-11305
former	-11306
▁backup	-11307
▁praised	-11308
▁Berkeley	-11309
seless	-11310
▁Laure	-11311
▁drops	-11312
▁Melbourne	-11313
▁libraries	-11314
▁newsletters	-11315
FS	-11316
cott	-11317
formance	-11318
▁tension	-11319
▁chocolate	-11320
▁12-	-11321
▁alert	-11322
▁Wel	-11323
▁Side	-11324
▁duties	-11325
▁incorrect	-11326
▁preparation	-11327
▁uncomfortable	-11328
opt	-11329
▁sustained	-11330
▁concentration	-11331
jan	-11332
iper	-11333
▁resort	-11334
▁qualified	-11335
▁advertisement	-11336
ulpt	-11337
ouses	-11338
▁Manager	-11339
▁neighborhoods	-11340
▁Ay	-11341
▁dressed	-11342
▁supposedly	-11343
link	-11344
▁Todd	-11345
▁prol	-11346
▁cease	-11347
▁ghost	-11348
▁garden	-11349
▁Rangers	-11350
▁favourite	-11351
▁Along	-11352
▁destro	-11353
avery	-11354
▁robots	-11355
▁earthqu	-11356
▁Champions	-11357
▁mechanisms	-11358
ques	-11359
omach	-11360
▁buyers	-11361
▁jurisd	-11362
▁operators	-11363
▁85	-11364
▁AFP	-11365
▁longtime	-11366
▁indication	-11367
▁Dom	-11368
▁Less	-11369
▁golf	-11370
▁kidn	-11371
▁slide	-11372
▁scrutiny	-11373
▁overnight	-11374
3-	-11375
ige	-11376
▁Yang	-11377
▁threshold	-11378
▁outstanding	-11379
▁SM	-11380
▁bugs	-11381
ailing	-11382
gments	-11383
▁Stein	-11384
▁Hunter	-11385
▁earning	-11386
▁departments	-11387
▁exploration	-11388
▁doctr	-11389
emption	-11390
itement	-11391
▁laptop	-11392
▁contents	-11393
▁mysterious	-11394
▁180	-11395
named	-11396
otion	-11397
usting	-11398
▁cryptocur	-11399
▁Pel	-11400
jamin	-11401
▁mouse	-11402
thal	-11403
▁Len	-11404
▁Citiz	-11405
▁quietly	-11406
▁summary	-11407
▁password	-11408
▁finishing	-11409
▁MA	-11410
▁Reid	-11411
▁flav	-11412
▁pour	-11413
▁crossing	-11414
▁99	-11415
thur	-11416
▁pose	-11417
▁tale	-11418
▁riders	-11419
▁crossed	-11420
▁painful	-11421
▁reviewed	-11422
▁migration	-11423
▁witnessed	-11424
▁IC	-11425
▁Saint	-11426
▁Eagles	-11427
▁fundament	-11428
▁addressing	-11429
▁(9	-11430
▁meets	-11431
▁Mobile	-11432
▁complexity	-11433
▁51	-11434
▁Laur	-11435
▁Roger	-11436
▁walks	-11437
▁chamber	-11438
▁ranging	-11439
▁detained	-11440
ects	-11441
isive	-11442
▁bizarre	-11443
▁Progress	-11444
▁frustration	-11445
▁spray	-11446
▁beaten	-11447
▁arrests	-11448
▁caution	-11449
▁secular	-11450
▁tu	-11451
rior	-11452
Leaks	-11453
count	-11454
▁Huff	-11455
▁Chall	-11456
▁hosting	-11457
▁Campbell	-11458
arma	-11459
▁grants	-11460
▁singing	-11461
▁installation	-11462
oda	-11463
▁Ry	-11464
▁Hend	-11465
▁alike	-11466
▁adoption	-11467
▁horrible	-11468
▁publisher	-11469
▁Bah	-11470
▁Kas	-11471
▁Lady	-11472
profile	-11473
▁convenient	-11474
▁Wayne	-11475
▁prevented	-11476
▁separated	-11477
code	-11478
▁Song	-11479
▁Forces	-11480
▁cous	-11481
▁crown	-11482
▁Chrome	-11483
▁prayer	-11484
msg	-11485
wall	-11486
▁Lie	-11487
arded	-11488
▁Trudeau	-11489
▁prosper	-11490
mid	-11491
▁Dor	-11492
▁$500	-11493
▁males	-11494
▁oldest	-11495
▁Philippines	-11496
▁sophisticated	-11497
uy	-11498
mons	-11499
▁ethics	-11500
▁Players	-11501
▁equipped	-11502
SE	-11503
▁adj	-11504
▁Blake	-11505
▁dealt	-11506
▁transmission	-11507
▁6-	-11508
▁fut	-11509
▁chips	-11510
▁overd	-11511
▁commod	-11512
▁pending	-11513
▁pension	-11514
▁suggestions	-11515
▁Heat	-11516
▁Swit	-11517
▁Ferguson	-11518
▁ambitious	-11519
▁competitors	-11520
rencies	-11521
▁Chance	-11522
▁environments	-11523
mart	-11524
▁grave	-11525
12]	-11526
▁20.	-11527
▁Blu	-11528
▁Beat	-11529
isting	-11530
▁filing	-11531
▁ambassador	-11532
▁Amb	-11533
aments	-11534
▁rewards	-11535
▁revenues	-11536
rons	-11537
EMENT	-11538
gence	-11539
▁Safety	-11540
▁Kit	-11541
▁font	-11542
▁Oxford	-11543
.[6	-11544
iden	-11545
▁Hann	-11546
▁Mitt	-11547
▁Murphy	-11548
▁boards	-11549
▁builds	-11550
▁restricted	-11551
▁Barry	-11552
▁commentary	-11553
▁radiation	-11554
▁hunt	-11555
▁worlds	-11556
▁Federation	-11557
▁nu	-11558
▁climb	-11559
▁consists	-11560
▁entities	-11561
▁Congressional	-11562
News	-11563
▁radar	-11564
▁golden	-11565
ART	-11566
kind	-11567
encer	-11568
kward	-11569
▁damn	-11570
▁comed	-11571
▁pricing	-11572
▁Military	-11573
▁gradually	-11574
▁Doug	-11575
▁circles	-11576
?'	-11577
Ne	-11578
cular	-11579
ocial	-11580
uates	-11581
▁Madrid	-11582
▁Airport	-11583
▁calculated	-11584
▁Advertisements	-11585
{"	-11586
rend	-11587
▁reign	-11588
▁bubble	-11589
▁Mississippi	-11590
bie	-11591
From	-11592
▁$15	-11593
▁Rap	-11594
▁Jess	-11595
iments	-11596
▁parks	-11597
▁viewing	-11598
Fig	-11599
▁por	-11600
▁meanwhile	-11601
▁toug	-11602
▁whis	-11603
▁marry	-11604
version	-11605
▁Comput	-11606
▁impose	-11607
▁Brandon	-11608
ICE	-11609
▁Rh	-11610
▁Brand	-11611
▁themes	-11612
▁murdered	-11613
▁Kickstarter	-11614
Me	-11615
bus	-11616
oyd	-11617
▁00:	-11618
▁Pur	-11619
▁partially	-11620
▁designated	-11621
Time	-11622
▁Fun	-11623
▁1996	-11624
▁Bab	-11625
▁FCC	-11626
▁hes	-11627
▁reserve	-11628
▁Blog	-11629
▁Morm	-11630
▁Rain	-11631
Of	-11632
las	-11633
ucker	-11634
▁Text	-11635
▁recept	-11636
▁instantly	-11637
▁fascinating	-11638
Post	-11639
▁Mas	-11640
▁Need	-11641
▁Awards	-11642
▁Watson	-11643
3/	-11644
▁Vin	-11645
ierre	-11646
▁stun	-11647
▁hearts	-11648
▁orange	-11649
▁Whatever	-11650
▁attorneys	-11651
▁altogether	-11652
▁assumption	-11653
▁collecting	-11654
oop	-11655
▁Prior	-11656
▁stunning	-11657
▁BE	-11658
▁eru	-11659
bably	-11660
estone	-11661
▁align	-11662
▁notably	-11663
▁annually	-11664
...”	-11665
uably	-11666
▁Oscar	-11667
▁Orange	-11668
▁crowds	-11669
▁delayed	-11670
▁density	-11671
▁hostile	-11672
▁exploring	-11673
▁historically	-11674
cre	-11675
▁cruel	-11676
▁tends	-11677
▁courses	-11678
▁winners	-11679
▁appearing	-11680
▁newspapers	-11681
▁agriculture	-11682
shot	-11683
▁relie	-11684
▁intelligent	-11685
itty	-11686
string	-11687
▁seeds	-11688
▁converted	-11689
aco	-11690
hol	-11691
▁HP	-11692
▁heaven	-11693
▁Ta	-11694
owder	-11695
▁Speaker	-11696
bet	-11697
▁demo	-11698
outing	-11699
▁Arena	-11700
▁Motor	-11701
▁Senior	-11702
▁Currently	-11703
▁Chron	-11704
▁Notes	-11705
▁Python	-11706
▁predec	-11707
▁focuses	-11708
▁relatives	-11709
▁panels	-11710
function	-11711
▁municipal	-11712
13]	-11713
accept	-11714
▁priest	-11715
▁wireless	-11716
▁scenarios	-11717
Ass	-11718
rike	-11719
▁Hus	-11720
▁acted	-11721
urities	-11722
▁styles	-11723
▁duration	-11724
ologically	-11725
▁Christianity	-11726
mun	-11727
olly	-11728
celona	-11729
ersion	-11730
▁Inside	-11731
▁Parker	-11732
▁translation	-11733
▁ES	-11734
▁jokes	-11735
▁width	-11736
▁deserves	-11737
▁template	-11738
▁violated	-11739
▁container	-11740
rot	-11741
▁catast	-11742
▁actress	-11743
▁permitted	-11744
▁enterprise	-11745
▁arena	-11746
▁Hawaii	-11747
government	-11748
▁Nevertheless	-11749
▁56	-11750
▁unl	-11751
pling	-11752
▁Rail	-11753
▁Corps	-11754
arently	-11755
▁Alberta	-11756
▁Indians	-11757
▁lineback	-11758
▁mechanics	-11759
83	-11760
arts	-11761
beat	-11762
▁Ess	-11763
▁misc	-11764
▁Storm	-11765
▁essay	-11766
▁technological	-11767
▁1997	-11768
▁aspir	-11769
▁fires	-11770
▁poorly	-11771
▁qualify	-11772
▁commands	-11773
▁suggestion	-11774
agu	-11775
▁Aw	-11776
▁tablet	-11777
▁contributing	-11778
omer	-11779
▁Arts	-11780
winning	-11781
▁800	-11782
acies	-11783
isode	-11784
leton	-11785
agraph	-11786
map	-11787
▁Cut	-11788
▁Gab	-11789
▁stomach	-11790
▁Benjamin	-11791
▁Election	-11792
▁disappeared	-11793
▁demonstration	-11794
1:	-11795
▁Tun	-11796
▁Quebec	-11797
▁Eventually	-11798
TO	-11799
rait	-11800
▁metaph	-11801
▁supporter	-11802
▁BR	-11803
▁Bears	-11804
▁Kerry	-11805
▁protections	-11806
FO	-11807
hill	-11808
▁Hum	-11809
▁sword	-11810
len	-11811
▁Emb	-11812
▁Fro	-11813
▁nights	-11814
▁oxygen	-11815
▁amongst	-11816
▁parameters	-11817
▁remembered	-11818
untu	-11819
PDATE	-11820
▁Buck	-11821
▁discipline	-11822
▁highlighted	-11823
UD	-11824
sk	-11825
▁cats	-11826
▁corn	-11827
▁epid	-11828
82	-11829
▁rivals	-11830
▁heritage	-11831
▁interven	-11832
▁accomplished	-11833
gi	-11834
700	-11835
ATED	-11836
▁Cos	-11837
▁Benn	-11838
▁Taiwan	-11839
▁McConnell	-11840
burn	-11841
▁Mov	-11842
▁haz	-11843
▁Tampa	-11844
▁faculty	-11845
▁lighting	-11846
TIS	-11847
▁2-	-11848
arer	-11849
gary	-11850
▁Flynn	-11851
▁reactions	-11852
▁sacrifice	-11853
uh	-11854
open	-11855
ching	-11856
iah	-11857
▁rifle	-11858
▁conced	-11859
▁distinction	-11860
CAA	-11861
err	-11862
ugs	-11863
▁worship	-11864
▁unnecessary	-11865
▁Tea	-11866
▁yard	-11867
▁popul	-11868
▁exchanges	-11869
uerto	-11870
orical	-11871
▁touched	-11872
▁rotation	-11873
▁investing	-11874
afi	-11875
▁spy	-11876
aucus	-11877
▁shake	-11878
▁tempt	-11879
??	-11880
Russ	-11881
fers	-11882
fish	-11883
▁cave	-11884
liminary	-11885
▁counties	-11886
▁Something	-11887
▁revealing	-11888
▁boundaries	-11889
▁Alt	-11890
▁tum	-11891
▁Smart	-11892
▁praise	-11893
▁Brus	-11894
▁fract	-11895
▁Investig	-11896
▁stressed	-11897
▁tob	-11898
▁Self	-11899
▁toile	-11900
EX	-11901
▁fet	-11902
piece	-11903
anches	-11904
▁Susan	-11905
▁grocer	-11906
▁Columbus	-11907
▁cultures	-11908
▁acceptance	-11909
2/	-11910
▁Dub	-11911
▁abol	-11912
▁Tyler	-11913
▁planes	-11914
▁delivering	-11915
mn	-11916
jar	-11917
▁peers	-11918
ASH	-11919
▁earl	-11920
▁Switzer	-11921
▁forb	-11922
▁Serge	-11923
▁Treat	-11924
▁Abbott	-11925
▁layers	-11926
▁trucks	-11927
▁Want	-11928
▁stir	-11929
▁Chuck	-11930
▁drones	-11931
▁composed	-11932
▁operates	-11933
▁Commissioner	-11934
ais	-11935
▁Luck	-11936
display	-11937
▁drinks	-11938
▁ceiling	-11939
▁gaining	-11940
flow	-11941
https	-11942
▁pink	-11943
natural	-11944
▁champions	-11945
▁References	-11946
fix	-11947
.[3]	-11948
▁Express	-11949
▁endless	-11950
▁Similarly	-11951
▁conclusions	-11952
________________	-11953
▁Row	-11954
▁indu	-11955
ernel	-11956
▁gentle	-11957
▁patrol	-11958
▁replacing	-11959
obby	-11960
▁Sad	-11961
▁dil	-11962
▁drafted	-11963
▁WikiLeaks	-11964
▁MC	-11965
polit	-11966
▁availability	-11967
gal	-11968
ivan	-11969
▁20%	-11970
▁till	-11971
▁rebel	-11972
▁offseason	-11973
▁citizenship	-11974
▁lady	-11975
▁ineff	-11976
▁naked	-11977
▁rocks	-11978
▁weaken	-11979
▁advised	-11980
▁debates	-11981
▁tensions	-11982
▁residence	-11983
sign	-11984
▁Anyone	-11985
▁preview	-11986
▁startup	-11987
▁Coalition	-11988
▁audiences	-11989
ND	-11990
ESS	-11991
imb	-11992
emin	-11993
▁toll	-11994
▁Cohen	-11995
▁starter	-11996
▁respected	-11997
uez	-11998
mare	-11999
imens	-12000
▁Kirk	-12001
▁Brady	-12002
▁awkward	-12003
▁shocking	-12004
▁Bloomberg	-12005
▁experiencing	-12006
0,	-12007
▁desert	-12008
▁Barcelona	-12009
▁happiness	-12010
▁appointment	-12011
▁questioning	-12012
fi	-12013
▁DNC	-12014
▁mild	-12015
otypes	-12016
▁crude	-12017
▁safer	-12018
▁Regard	-12019
▁Obviously	-12020
▁philosoph	-12021
▁motivation	-12022
first	-12023
▁curve	-12024
▁ritual	-12025
▁Political	-12026
rup	-12027
two	-12028
▁NC	-12029
half	-12030
matic	-12031
▁conversion	-12032
▁confirmation	-12033
OG	-12034
▁Ped	-12035
ridge	-12036
speed	-12037
▁venue	-12038
▁Temple	-12039
aughters	-12040
▁slavery	-12041
▁Bond	-12042
handed	-12043
ryption	-12044
▁MM	-12045
▁Jefferson	-12046
sky	-12047
▁Hond	-12048
▁Scar	-12049
▁node	-12050
▁Almost	-12051
▁incomp	-12052
ocus	-12053
uccess	-12054
▁imperial	-12055
▁countless	-12056
▁illegally	-12057
minded	-12058
▁acquisition	-12059
wid	-12060
requ	-12061
comed	-12062
▁Stre	-12063
▁dign	-12064
▁abund	-12065
▁greet	-12066
▁Dakota	-12067
HT	-12068
enna	-12069
▁Pok	-12070
quer	-12071
▁tar	-12072
story	-12073
orient	-12074
▁sends	-12075
▁shorter	-12076
▁divide	-12077
▁emerge	-12078
▁computing	-12079
▁declaration	-12080
byn	-12081
Data	-12082
brew	-12083
▁Lynch	-12084
lementary	-12085
▁Posted	-12086
▁anarch	-12087
▁seventh	-12088
▁Ca	-12089
glas	-12090
▁COM	-12091
formed	-12092
▁Money	-12093
▁Communist	-12094
▁initiatives	-12095
▁decor	-12096
▁depos	-12097
▁org	-12098
▁beef	-12099
ortunate	-12100
▁Profile	-12101
ст	-12102
▁Fat	-12103
atile	-12104
▁affair	-12105
▁declare	-12106
▁ensuring	-12107
▁formally	-12108
▁manufacturer	-12109
chron	-12110
▁Puerto	-12111
▁placing	-12112
▁honestly	-12113
▁mountains	-12114
sized	-12115
▁bonds	-12116
▁Saints	-12117
▁insane	-12118
▁applying	-12119
▁constrain	-12120
.[4]	-12121
▁Gates	-12122
▁enjoying	-12123
atre	-12124
▁Neil	-12125
▁tobacco	-12126
▁McM	-12127
usters	-12128
▁Marshall	-12129
▁judicial	-12130
▁marginal	-12131
▁tutorial	-12132
▁interrupt	-12133
▁192	-12134
▁NEW	-12135
ATION	-12136
second	-12137
▁capability	-12138
ults	-12139
▁hacking	-12140
▁pressing	-12141
▁Nat	-12142
▁Deputy	-12143
oa	-12144
▁token	-12145
▁balanced	-12146
▁controlling	-12147
▁transformation	-12148
atoes	-12149
▁Terry	-12150
▁traveled	-12151
▁Wikipedia	-12152
ttes	-12153
oons	-12154
▁flew	-12155
ockets	-12156
▁vague	-12157
▁zones	-12158
▁tunnel	-12159
▁Caption	-12160
▁innings	-12161
▁advantages	-12162
▁electrical	-12163
▁respective	-12164
abetes	-12165
▁Morris	-12166
▁wishes	-12167
▁Natural	-12168
alid	-12169
mi	-12170
big	-12171
aman	-12172
best	-12173
shore	-12174
:0.17.1/	-12175
▁Friends	-12176
▁Neither	-12177
uming	-12178
▁READ	-12179
▁frank	-12180
▁posed	-12181
▁Records	-12182
▁observations	-12183
fs	-12184
guard	-12185
▁aging	-12186
▁panic	-12187
▁serial	-12188
▁sentences	-12189
▁Bou	-12190
▁tel	-12191
athon	-12192
ected	-12193
▁Past	-12194
▁lone	-12195
acular	-12196
because	-12197
▁derived	-12198
▁celebration	-12199
▁57	-12200
▁Chap	-12201
▁tune	-12202
▁Krist	-12203
▁WATCH	-12204
▁Philip	-12205
▁mandatory	-12206
▁Mort	-12207
▁breach	-12208
km	-12209
▁Bh	-12210
itate	-12211
mother	-12212
▁quotes	-12213
▁scratch	-12214
bles	-12215
rained	-12216
▁Prize	-12217
▁acquire	-12218
▁desired	-12219
▁devoted	-12220
ims	-12221
file	-12222
▁aest	-12223
lected	-12224
verning	-12225
▁Franklin	-12226
▁mechanical	-12227
GA	-12228
uto	-12229
itial	-12230
▁Yahoo	-12231
▁pedest	-12232
▁Members	-12233
▁arguably	-12234
▁agricultural	-12235
zes	-12236
ding	-12237
▁wheels	-12238
▁highway	-12239
▁tendency	-12240
▁composition	-12241
SU	-12242
▁$3.	-12243
▁Switzerland	-12244
▁''	-12245
▁Dog	-12246
▁Hotel	-12247
▁sauce	-12248
▁resigned	-12249
▁consequence	-12250
gt	-12251
amped	-12252
▁0.00	-12253
▁pledge	-12254
En	-12255
▁contam	-12256
▁powered	-12257
kes	-12258
▁DM	-12259
▁700	-12260
▁bund	-12261
▁temp	-12262
umbled	-12263
▁treating	-12264
▁immigrant	-12265
▁intensity	-12266
utt	-12267
rane	-12268
▁Rio	-12269
▁Fast	-12270
econom	-12271
▁reply	-12272
▁Living	-12273
▁waited	-12274
▁strongest	-12275
▁raid	-12276
▁Circuit	-12277
▁variation	-12278
▁EX	-12279
▁Roc	-12280
▁1995	-12281
▁Anne	-12282
▁Occup	-12283
▁beers	-12284
▁rehab	-12285
▁vegan	-12286
▁Around	-12287
▁painted	-12288
▁penalties	-12289
dec	-12290
▁Fel	-12291
UTERS	-12292
ousing	-12293
▁Firef	-12294
▁wound	-12295
▁Rogers	-12296
▁Buffalo	-12297
▁exports	-12298
▁expertise	-12299
IST	-12300
rin	-12301
▁Method	-12302
▁stocks	-12303
▁longest	-12304
-11	-12305
▁Maine	-12306
▁unity	-12307
ructive	-12308
▁cultiv	-12309
▁dispar	-12310
▁fastest	-12311
▁wrapped	-12312
ropolitan	-12313
▁subsidies	-12314
lamm	-12315
▁lyr	-12316
▁59	-12317
▁Beng	-12318
▁meth	-12319
▁deciding	-12320
▁flexible	-12321
▁liberals	-12322
▁Nav	-12323
▁cam	-12324
▁pione	-12325
▁hatred	-12326
▁Mission	-12327
▁bathroom	-12328
▁participated	-12329
eu	-12330
ori	-12331
pot	-12332
acer	-12333
▁Farm	-12334
connect	-12335
▁detected	-12336
▁conservation	-12337
pin	-12338
pace	-12339
▁360	-12340
otton	-12341
value	-12342
▁Coach	-12343
▁infring	-12344
▁Medicine	-12345
▁earliest	-12346
▁economies	-12347
▁socialist	-12348
▁GPU	-12349
▁ugly	-12350
▁armor	-12351
▁clicking	-12352
▁undermin	-12353
▁preval	-12354
▁monetary	-12355
***	-12356
Mar	-12357
▁19.	-12358
▁bio	-12359
▁lun	-12360
▁NCAA	-12361
▁mutual	-12362
▁Christie	-12363
▁colleges	-12364
▁priorities	-12365
▁ash	-12366
charge	-12367
▁ideological	-12368
▁EV	-12369
bage	-12370
icut	-12371
▁divorce	-12372
▁emotion	-12373
▁pressed	-12374
▁receives	-12375
IO	-12376
zb	-12377
auc	-12378
atin	-12379
▁scary	-12380
itivity	-12381
▁distant	-12382
▁attributed	-12383
▁anticipated	-12384
▁texts	-12385
▁coordinator	-12386
abl	-12387
▁Raid	-12388
▁Number	-12389
▁Return	-12390
▁Zh	-12391
boards	-12392
▁Swiss	-12393
▁Veter	-12394
▁Corbyn	-12395
▁filling	-12396
▁pledged	-12397
▁barriers	-12398
▁directions	-12399
bart	-12400
anded	-12401
▁Bart	-12402
▁Hispan	-12403
zo	-12404
▁Prin	-12405
▁squee	-12406
▁absent	-12407
▁makers	-12408
▁cartoon	-12409
▁elderly	-12410
▁Photograph	-12411
ACK	-12412
ector	-12413
product	-12414
▁sculpt	-12415
▁Chapter	-12416
▁Liberty	-12417
▁nonprofit	-12418
iary	-12419
ctive	-12420
▁freely	-12421
▁inappropri	-12422
▁difficulties	-12423
▁humanitarian	-12424
agg	-12425
▁Ju	-12426
▁USC	-12427
idding	-12428
▁Besides	-12429
▁Thunder	-12430
▁oversight	-12431
▁responding	-12432
▁structural	-12433
▁58	-12434
etta	-12435
▁fare	-12436
▁incons	-12437
▁appeals	-12438
▁sacrific	-12439
▁recy	-12440
abling	-12441
▁masses	-12442
▁Morning	-12443
▁animated	-12444
▁completion	-12445
ski	-12446
▁RT	-12447
itably	-12448
▁rumors	-12449
▁Kam	-12450
▁chap	-12451
specific	-12452
▁welcomed	-12453
('	-12454
VERTIS	-12455
▁Agree	-12456
ilateral	-12457
▁advocacy	-12458
▁flexibility	-12459
▁rushed	-12460
▁magical	-12461
▁fraction	-12462
▁null	-12463
▁grasp	-12464
▁condemn	-12465
▁attendance	-12466
main	-12467
onia	-12468
▁WWE	-12469
▁nick	-12470
▁clever	-12471
▁worthy	-12472
61	-12473
▁Due	-12474
▁Tob	-12475
▁Gray	-12476
▁approve	-12477
▁disturbing	-12478
anka	-12479
valid	-12480
▁directors	-12481
▁economists	-12482
15]	-12483
dam	-12484
vious	-12485
▁ears	-12486
▁Fisher	-12487
▁preserv	-12488
uri	-12489
▁Shan	-12490
▁lung	-12491
▁masc	-12492
▁viral	-12493
▁announcing	-12494
▁03	-12495
rust	-12496
▁1994	-12497
advant	-12498
outheast	-12499
▁avoided	-12500
▁considers	-12501
▁casting	-12502
▁floating	-12503
▁sentiment	-12504
drop	-12505
▁Norway	-12506
▁breakfast	-12507
▁transparent	-12508
Mus	-12509
▁(7	-12510
▁suprem	-12511
▁organisations	-12512
14.	-12513
azy	-12514
abil	-12515
rint	-12516
▁editing	-12517
▁societies	-12518
di	-12519
Pal	-12520
orer	-12521
orig	-12522
igers	-12523
▁Lucas	-12524
▁Seven	-12525
▁Brooks	-12526
▁buttons	-12527
▁triggered	-12528
▁regulators	-12529
esis	-12530
▁9/11	-12531
▁flip	-12532
▁Reading	-12533
▁WR	-12534
▁Hig	-12535
cycle	-12536
▁Gate	-12537
▁pays	-12538
▁Turner	-12539
▁greenhouse	-12540
▁legislature	-12541
▁AA	-12542
▁fest	-12543
▁bears	-12544
▁volunteer	-12545
ella	-12546
▁conj	-12547
▁Fried	-12548
▁Raven	-12549
▁crops	-12550
▁Better	-12551
▁empire	-12552
▁feminist	-12553
▁resolved	-12554
-16	-12555
▁Karl	-12556
▁Works	-12557
▁dispro	-12558
▁harvest	-12559
▁Employ	-12560
▁beloved	-12561
▁frustrated	-12562
▁achievement	-12563
▁vel	-12564
acent	-12565
▁sher	-12566
▁economist	-12567
▁Clar	-12568
▁Garc	-12569
keeper	-12570
▁peoples	-12571
▁permits	-12572
▁respondents	-12573
prot	-12574
asted	-12575
▁buzz	-12576
▁Hindu	-12577
▁bitter	-12578
▁knocked	-12579
▁identifying	-12580
ths	-12581
Name	-12582
▁$1,	-12583
▁Garden	-12584
▁Century	-12585
▁Brussels	-12586
▁churches	-12587
EE	-12588
nor	-12589
borne	-12590
▁Contact	-12591
▁suppose	-12592
asm	-12593
eor	-12594
ipt	-12595
▁Maria	-12596
▁habits	-12597
icts	-12598
inging	-12599
▁Imper	-12600
▁Lebanon	-12601
▁magnitude	-12602
▁survivors	-12603
▁conducting	-12604
▁psychology	-12605
▁15-	-12606
roc	-12607
▁Rosen	-12608
▁overl	-12609
▁Venezuela	-12610
▁spacecraft	-12611
▁н	-12612
stan	-12613
▁Survey	-12614
▁teenager	-12615
▁prototype	-12616
▁instruments	-12617
▁95	-12618
▁(3)	-12619
▁Bund	-12620
▁cake	-12621
incinn	-12622
▁wings	-12623
▁barrier	-12624
▁enhanced	-12625
▁attitudes	-12626
▁Je	-12627
Book	-12628
▁cort	-12629
initely	-12630
94	-12631
();	-12632
14]	-12633
wau	-12634
▁Crown	-12635
▁Weiss	-12636
========	-12637
▁reminded	-12638
▁metab	-12639
▁ultra	-12640
▁instinct	-12641
▁undermine	-12642
▁optimistic	-12643
▁Il	-12644
▁Ja	-12645
storm	-12646
arents	-12647
▁Evans	-12648
▁Oliver	-12649
▁pursuit	-12650
▁reaches	-12651
▁grateful	-12652
▁Universal	-12653
▁provincial	-12654
normal	-12655
▁Guide	-12656
prising	-12657
▁Rodrig	-12658
▁donation	-12659
▁understands	-12660
▁$8	-12661
oard	-12662
▁refusing	-12663
▁disorders	-12664
start	-12665
▁bones	-12666
▁comply	-12667
▁Broncos	-12668
▁comparing	-12669
▁compliance	-12670
▁accountable	-12671
Hey	-12672
▁0.5	-12673
▁URL	-12674
▁fru	-12675
▁Years	-12676
▁legendary	-12677
▁4-	-12678
fold	-12679
▁Harvey	-12680
▁shooter	-12681
▁thereby	-12682
▁whistle	-12683
▁colleague	-12684
▁defenders	-12685
▁explosive	-12686
▁particles	-12687
wal	-12688
gree	-12689
▁Isa	-12690
asting	-12691
▁Keith	-12692
▁humor	-12693
▁purely	-12694
▁retailers	-12695
▁Connecticut	-12696
▁JS	-12697
coins	-12698
▁Jets	-12699
▁hopeful	-12700
incinnati	-12701
▁orientation	-12702
▁unfortunate	-12703
crat	-12704
seud	-12705
▁Rams	-12706
▁rall	-12707
irable	-12708
▁grabbed	-12709
▁deliberately	-12710
▁unh	-12711
▁reconst	-12712
▁suitable	-12713
▁condemned	-12714
▁lib	-12715
▁Phone	-12716
western	-12717
▁sequel	-12718
▁quantum	-12719
▁assuming	-12720
▁printing	-12721
▁eliminated	-12722
▁NG	-12723
think	-12724
▁Cand	-12725
▁urge	-12726
source	-12727
▁Speed	-12728
▁Warriors	-12729
▁traditionally	-12730
▁MD	-12731
▁Dri	-12732
▁dispos	-12733
▁strain	-12734
▁excessive	-12735
▁Hat	-12736
▁Load	-12737
school	-12738
▁Robin	-12739
▁Solar	-12740
▁spreading	-12741
▁minorities	-12742
WS	-12743
vals	-12744
▁Save	-12745
▁boring	-12746
▁brains	-12747
▁donated	-12748
sur	-12749
▁1930	-12750
▁Anim	-12751
waukee	-12752
▁Gallery	-12753
▁calendar	-12754
▁technically	-12755
▁Conservatives	-12756
orph	-12757
when	-12758
▁Dest	-12759
▁Added	-12760
▁fence	-12761
▁spawn	-12762
▁fright	-12763
▁meantime	-12764
Ed	-12765
▁Ath	-12766
▁grip	-12767
around	-12768
▁escaped	-12769
▁batteries	-12770
▁subt	-12771
▁pizza	-12772
▁inclusion	-12773
▁Arctic	-12774
▁operational	-12775
▁temporarily	-12776
adows	-12777
earchers	-12778
▁indicating	-12779
▁Muham	-12780
▁Bradley	-12781
▁Updated	-12782
▁verdict	-12783
▁Universe	-12784
▁observation	-12785
▁fluid	-12786
▁betray	-12787
▁ethical	-12788
▁hackers	-12789
iva	-12790
Press	-12791
▁Meet	-12792
▁bass	-12793
points	-12794
▁Altern	-12795
▁Madison	-12796
▁founding	-12797
▁designers	-12798
▁Current	-12799
▁hypothesis	-12800
▁$30	-12801
isers	-12802
▁Bash	-12803
▁disg	-12804
master	-12805
▁exped	-12806
▁Merkel	-12807
▁crying	-12808
▁interf	-12809
▁lasted	-12810
▁sooner	-12811
▁unders	-12812
▁Holland	-12813
▁mixture	-12814
▁secured	-12815
▁excitement	-12816
▁presumably	-12817
ello	-12818
▁Rah	-12819
arettes	-12820
written	-12821
▁Nobody	-12822
▁Getting	-12823
▁headline	-12824
Val	-12825
hal	-12826
supp	-12827
somet	-12828
▁Ghost	-12829
ationally	-12830
▁athletic	-12831
▁satisfied	-12832
▁##	-12833
cend	-12834
▁Lock	-12835
ountered	-12836
▁gravity	-12837
▁secrets	-12838
▁reminder	-12839
▁romantic	-12840
▁encountered	-12841
IVE	-12842
iciary	-12843
▁Books	-12844
▁Advent	-12845
▁sensor	-12846
▁whites	-12847
▁assured	-12848
▁probability	-12849
chi	-12850
rape	-12851
▁***	-12852
never	-12853
▁Nort	-12854
▁rice	-12855
▁analyt	-12856
▁equity	-12857
▁REUTERS	-12858
fig	-12859
▁66	-12860
TION	-12861
stock	-12862
▁hier	-12863
▁bless	-12864
▁offset	-12865
▁islands	-12866
▁portfol	-12867
▁vertical	-12868
▁alternatives	-12869
fil	-12870
▁FL	-12871
llers	-12872
▁shifted	-12873
arenthood	-12874
▁aftermath	-12875
16]	-12876
▁AB	-12877
▁Princ	-12878
▁lifted	-12879
▁treaty	-12880
▁Douglas	-12881
▁Diff	-12882
▁steep	-12883
▁failures	-12884
▁1.0	-12885
▁Thor	-12886
▁damaging	-12887
▁breathing	-12888
▁McL	-12889
color	-12890
▁careers	-12891
▁embedded	-12892
▁evaluate	-12893
▁tourists	-12894
Pl	-12895
▁GR	-12896
▁detain	-12897
▁wallet	-12898
▁disclosure	-12899
▁RC	-12900
arthy	-12901
▁Studio	-12902
nered	-12903
owners	-12904
▁Marco	-12905
▁treatments	-12906
.:	-12907
owell	-12908
▁sued	-12909
backed	-12910
▁edited	-12911
▁hybrid	-12912
▁Belgium	-12913
▁planets	-12914
▁trapped	-12915
dale	-12916
ocate	-12917
▁Cowboys	-12918
▁Cincinnati	-12919
NT	-12920
izard	-12921
▁Reed	-12922
▁ampl	-12923
urable	-12924
ussion	-12925
▁trusted	-12926
▁throws	-12927
▁cleaning	-12928
▁parliamentary	-12929
Sec	-12930
▁53	-12931
▁demol	-12932
▁monop	-12933
▁Arkansas	-12934
▁Superman	-12935
ucc	-12936
haul	-12937
ungle	-12938
▁tatt	-12939
▁Search	-12940
▁fierce	-12941
▁decides	-12942
fin	-12943
resa	-12944
▁fib	-12945
▁Joined	-12946
▁Islamist	-12947
▁suspicion	-12948
▁(0	-12949
erer	-12950
▁Hey	-12951
▁Glenn	-12952
▁admits	-12953
▁novels	-12954
▁jumping	-12955
▁Partners	-12956
▁translated	-12957
▁counterparts	-12958
▁interference	-12959
▁millenn	-12960
▁partial	-12961
▁recruiting	-12962
tech	-12963
▁Title	-12964
▁immense	-12965
▁lacking	-12966
▁deployment	-12967
▁corresponding	-12968
whe	-12969
media	-12970
writer	-12971
▁traits	-12972
▁Bernard	-12973
▁Finance	-12974
▁editors	-12975
▁ADVERTIS	-12976
▁reserves	-12977
NG	-12978
iph	-12979
▁rushing	-12980
▁infected	-12981
John	-12982
lash	-12983
▁indict	-12984
▁compound	-12985
▁Pakistani	-12986
▁{\	-12987
▁Jar	-12988
▁awa	-12989
▁dece	-12990
▁reson	-12991
▁identification	-12992
aku	-12993
▁Guy	-12994
▁lake	-12995
▁eleph	-12996
▁farms	-12997
▁steam	-12998
table	-12999
▁Cass	-13000
▁Salt	-13001
▁essence	-13002
▁Indonesia	-13003
py	-13004
▁4:	-13005
▁Rat	-13006
visor	-13007
▁laser	-13008
▁silly	-13009
▁Spirit	-13010
▁(8	-13011
▁Pap	-13012
▁Jake	-13013
▁Till	-13014
itbart	-13015
▁aggreg	-13016
46	-13017
▁grows	-13018
▁Polish	-13019
▁convinc	-13020
▁DA	-13021
▁Od	-13022
▁Poké	-13023
▁scrap	-13024
▁interrog	-13025
▁wondered	-13026
inates	-13027
▁honey	-13028
▁stabil	-13029
▁Imagine	-13030
▁workforce	-13031
▁imagination	-13032
▁introducing	-13033
path	-13034
▁Hem	-13035
▁spare	-13036
▁bottles	-13037
forcement	-13038
▁comparable	-13039
Over	-13040
▁females	-13041
▁vacation	-13042
▁warnings	-13043
tail	-13044
shirt	-13045
▁dose	-13046
▁slave	-13047
▁cricket	-13048
▁purchases	-13049
▁authorized	-13050
▁dys	-13051
esity	-13052
▁Danny	-13053
▁Sor	-13054
▁nons	-13055
giving	-13056
▁lanes	-13057
▁outer	-13058
▁Carson	-13059
▁descript	-13060
eller	-13061
peror	-13062
▁Must	-13063
astically	-13064
▁()	-13065
▁zomb	-13066
▁grain	-13067
▁decreased	-13068
▁governing	-13069
Who	-13070
▁CM	-13071
addy	-13072
▁compos	-13073
▁taxpayer	-13074
▁daughters	-13075
▁creep	-13076
▁Working	-13077
▁doubled	-13078
▁breakdown	-13079
▁organizing	-13080
-18	-13081
Cal	-13082
.[5]	-13083
reach	-13084
▁expend	-13085
▁fitness	-13086
▁isolation	-13087
▁paragraph	-13088
nik	-13089
▁$9	-13090
▁Kle	-13091
▁Pred	-13092
ueller	-13093
▁Stars	-13094
ambling	-13095
▁Theatre	-13096
és	-13097
▁Corn	-13098
▁Pick	-13099
▁mamm	-13100
powered	-13101
▁Milwaukee	-13102
▁shed	-13103
▁Sciences	-13104
▁intentions	-13105
IE	-13106
beit	-13107
uced	-13108
,000,	-13109
▁Lane	-13110
▁infer	-13111
▁trash	-13112
▁Charlotte	-13113
aa	-13114
▁Pi	-13115
actor	-13116
▁Prim	-13117
▁Charg	-13118
▁recount	-13119
▁diagnosed	-13120
▁suspicious	-13121
▁HS	-13122
direct	-13123
▁villages	-13124
cs	-13125
▁reun	-13126
********	-13127
▁damages	-13128
▁BY	-13129
▁DR	-13130
ollah	-13131
utical	-13132
▁Billy	-13133
▁frozen	-13134
▁invite	-13135
▁routinely	-13136
-14	-13137
▁Celt	-13138
▁agrees	-13139
▁retreat	-13140
▁indirect	-13141
OB	-13142
▁04	-13143
Even	-13144
hess	-13145
▁BJP	-13146
▁Hero	-13147
ifting	-13148
▁sparked	-13149
▁colonial	-13150
▁disadvant	-13151
▁mock	-13152
▁tong	-13153
▁Shadow	-13154
▁climbing	-13155
▁Relations	-13156
▁believing	-13157
▁touchdowns	-13158
▁preliminary	-13159
Net	-13160
▁22.	-13161
urred	-13162
▁2004,	-13163
▁acres	-13164
▁Jennifer	-13165
▁pursuing	-13166
▁incentive	-13167
lie	-13168
▁::	-13169
urse	-13170
▁tub	-13171
▁Brig	-13172
▁Virt	-13173
izable	-13174
▁Impro	-13175
▁inhib	-13176
▁tenure	-13177
▁processor	-13178
ignt	-13179
itative	-13180
▁Double	-13181
▁arriving	-13182
▁supplement	-13183
▁toy	-13184
urned	-13185
▁triple	-13186
President	-13187
▁collapsed	-13188
▁preference	-13189
▁Leaf	-13190
▁Seah	-13191
▁gifts	-13192
▁pepper	-13193
▁advances	-13194
▁publishers	-13195
▁institutional	-13196
▁FDA	-13197
▁Juan	-13198
▁Blues	-13199
▁anime	-13200
▁feeding	-13201
▁jew	-13202
heric	-13203
ugging	-13204
▁streak	-13205
▁corners	-13206
▁shifting	-13207
▁screening	-13208
▁helicopter	-13209
▁prohibited	-13210
▁traditions	-13211
▁24-	-13212
▁AMD	-13213
cribed	-13214
▁pilots	-13215
▁Defence	-13216
▁harmful	-13217
Te	-13218
prom	-13219
▁Clay	-13220
▁edges	-13221
▁tragic	-13222
▁licensed	-13223
▁unveiled	-13224
iop	-13225
▁Teh	-13226
▁Fantasy	-13227
▁incentives	-13228
▁trafficking	-13229
ols	-13230
▁SW	-13231
▁LED	-13232
▁horm	-13233
isible	-13234
▁2001,	-13235
▁generous	-13236
▁lobbying	-13237
▁67	-13238
▁191	-13239
▁denial	-13240
▁conclude	-13241
▁Kl	-13242
▁$50	-13243
▁Tory	-13244
▁funeral	-13245
▁counting	-13246
▁licensing	-13247
GM	-13248
▁Hi	-13249
oler	-13250
▁String	-13251
▁slower	-13252
▁warfare	-13253
olk	-13254
abul	-13255
oner	-13256
Semit	-13257
▁Cher	-13258
▁Unit	-13259
roller	-13260
▁Cambridge	-13261
▁compassion	-13262
▁continuous	-13263
▁kills	-13264
acceptable	-13265
▁creativity	-13266
/.	-13267
▁72	-13268
plex	-13269
▁Making	-13270
▁contacts	-13271
ahn	-13272
▁pp	-13273
▁Half	-13274
health	-13275
▁cents	-13276
▁draws	-13277
▁Terror	-13278
▁Verizon	-13279
▁Resources	-13280
▁1/2	-13281
▁Ric	-13282
▁tang	-13283
▁winds	-13284
▁beneficial	-13285
▁approaching	-13286
lly	-13287
▁ft	-13288
▁Roth	-13289
▁inch	-13290
▁trop	-13291
▁Carlos	-13292
▁Johnny	-13293
▁shifts	-13294
▁Vermont	-13295
alin	-13296
orns	-13297
▁grace	-13298
essional	-13299
▁Country	-13300
▁filming	-13301
Mod	-13302
▁Sox	-13303
fight	-13304
▁gray	-13305
▁hors	-13306
▁Mason	-13307
];	-13308
data	-13309
▁smugg	-13310
olutions	-13311
▁Cuban	-13312
▁impress	-13313
▁branches	-13314
%,	-13315
▁77	-13316
▁Ec	-13317
issa	-13318
▁Arthur	-13319
▁feared	-13320
▁urging	-13321
▁counted	-13322
▁admission	-13323
▁financing	-13324
▁examination	-13325
43	-13326
▁“[	-13327
▁visa	-13328
▁blacks	-13329
▁McCarthy	-13330
▁negotiate	-13331
▁accounting	-13332
▁QB	-13333
▁dumb	-13334
▁exempt	-13335
▁accurately	-13336
▁separation	-13337
▁Vi	-13338
▁Iss	-13339
▁bite	-13340
▁outright	-13341
NET	-13342
tha	-13343
9.99	-13344
View	-13345
▁Stop	-13346
▁layout	-13347
▁Students	-13348
98	-13349
Any	-13350
anium	-13351
ublin	-13352
▁Hide	-13353
▁Spot	-13354
▁Qaeda	-13355
▁hence	-13356
munition	-13357
▁Calgary	-13358
▁invented	-13359
▁arrangement	-13360
▁NE	-13361
▁Hub	-13362
▁Room	-13363
▁holy	-13364
▁genet	-13365
ordable	-13366
▁insect	-13367
▁leverage	-13368
▁indigenous	-13369
List	-13370
▁Activ	-13371
▁Attack	-13372
▁auction	-13373
▁skilled	-13374
▁investor	-13375
▁instruction	-13376
▁transformed	-13377
▁disappointing	-13378
".[	-13379
ools	-13380
▁lip	-13381
▁aired	-13382
▁Exchange	-13383
▁Memorial	-13384
▁Michelle	-13385
idays	-13386
▁finan	-13387
claimed	-13388
ocumented	-13389
▁Communications	-13390
▁merc	-13391
outube	-13392
▁brave	-13393
▁trace	-13394
▁passionate	-13395
▁determination	-13396
ahl	-13397
actic	-13398
driven	-13399
▁penet	-13400
▁Either	-13401
▁shoulders	-13402
▁civilization	-13403
five	-13404
▁Bos	-13405
▁GPS	-13406
▁Colomb	-13407
▁Workers	-13408
uv	-13409
pop	-13410
▁folk	-13411
▁unch	-13412
▁Walter	-13413
illo	-13414
▁dio	-13415
arest	-13416
Christ	-13417
▁bikes	-13418
▁rated	-13419
▁realm	-13420
▁Studios	-13421
▁cluster	-13422
▁execute	-13423
▁justified	-13424
▁Fab	-13425
ignty	-13426
▁sheer	-13427
▁sectors	-13428
▁Analysis	-13429
▁avoiding	-13430
▁laughing	-13431
▁subscription	-13432
-17	-13433
pur	-13434
remlin	-13435
▁Glass	-13436
▁appealing	-13437
▁destroying	-13438
plan	-13439
▁Shar	-13440
▁unst	-13441
ooting	-13442
▁whilst	-13443
▁connecting	-13444
▁02	-13445
eren	-13446
hell	-13447
▁lau	-13448
▁fict	-13449
aceutical	-13450
▁Brazilian	-13451
-200	-13452
▁Dod	-13453
ighed	-13454
oline	-13455
width	-13456
▁Peters	-13457
▁screaming	-13458
▁workplace	-13459
▁aggression	-13460
▁likelihood	-13461
uj	-13462
eded	-13463
▁21.	-13464
▁Gay	-13465
▁Quick	-13466
▁median	-13467
▁Highway	-13468
▁Muhammad	-13469
▁photographer	-13470
▁audit	-13471
▁labels	-13472
▁enables	-13473
▁sponsored	-13474
▁generating	-13475
dig	-13476
▁Joh	-13477
▁Bros	-13478
acious	-13479
▁orche	-13480
▁slaves	-13481
▁shootings	-13482
live	-13483
▁HBO	-13484
▁educated	-13485
▁expressing	-13486
▁commissioner	-13487
cules	-13488
▁Hunt	-13489
▁bind	-13490
▁Pence	-13491
▁Seahawks	-13492
▁willingness	-13493
Per	-13494
Last	-13495
mouth	-13496
rowth	-13497
quality	-13498
▁farming	-13499
▁magnetic	-13500
auer	-13501
▁Ave	-13502
▁Joy	-13503
▁royal	-13504
▁unrest	-13505
▁Original	-13506
▁averaged	-13507
▁wrestling	-13508
},	-13509
▁cub	-13510
levant	-13511
▁Nixon	-13512
▁firmly	-13513
▁consumed	-13514
▁underway	-13515
▁succeeded	-13516
▁frustrating	-13517
▁hed	-13518
iking	-13519
▁bust	-13520
▁2007.	-13521
▁rhyth	-13522
▁snaps	-13523
olphins	-13524
▁commented	-13525
▁capitalist	-13526
▁NPR	-13527
▁Cond	-13528
▁dash	-13529
▁Ebola	-13530
▁Record	-13531
▁lecture	-13532
▁Electric	-13533
▁mentally	-13534
▁midfielder	-13535
▁с	-13536
Here	-13537
▁MMA	-13538
▁Nin	-13539
▁meals	-13540
▁pretend	-13541
DE	-13542
▁Nex	-13543
▁shar	-13544
▁outdoor	-13545
▁demographic	-13546
home	-13547
▁Pas	-13548
black	-13549
▁Gear	-13550
▁2000,	-13551
▁thumb	-13552
▁chains	-13553
▁uncons	-13554
▁diabetes	-13555
▁monsters	-13556
▁VP	-13557
▁Creek	-13558
▁thirty	-13559
▁Account	-13560
angelical	-13561
▁credibility	-13562
▁implementing	-13563
OST	-13564
▁TOD	-13565
▁Tib	-13566
▁mph	-13567
▁Kind	-13568
▁nuts	-13569
▁Packers	-13570
▁threaten	-13571
▁establishing	-13572
▁Inv	-13573
pered	-13574
▁Bryant	-13575
▁overlook	-13576
▁BP	-13577
iasm	-13578
▁3.5	-13579
▁prox	-13580
▁gamers	-13581
▁tradem	-13582
▁Goldman	-13583
▁Liberals	-13584
▁Movement	-13585
▁attacker	-13586
▁ignoring	-13587
▁boyfriend	-13588
▁solidarity	-13589
▁vulnerability	-13590
17]	-13591
▁Dennis	-13592
▁bedroom	-13593
rose	-13594
▁Alf	-13595
▁Chile	-13596
▁Mueller	-13597
▁pleaded	-13598
▁continent	-13599
▁Rank	-13600
iberal	-13601
▁encryption	-13602
affe	-13603
▁Lev	-13604
▁Sent	-13605
illery	-13606
▁albums	-13607
▁resume	-13608
▁Spencer	-13609
▁reasoning	-13610
▁Ye	-13611
elta	-13612
feed	-13613
▁Soul	-13614
▁buses	-13615
▁Nearly	-13616
▁Assistant	-13617
▁corporation	-13618
▁statistical	-13619
olo	-13620
ocity	-13621
▁Bryan	-13622
erences	-13623
▁expose	-13624
▁lengthy	-13625
▁matching	-13626
▁precious	-13627
▁ACL	-13628
stage	-13629
▁directory	-13630
▁compatible	-13631
=”	-13632
AK	-13633
:15	-13634
aha	-13635
▁Upon	-13636
▁linear	-13637
▁modules	-13638
▁ADVERTISEMENT	-13639
▁Travel	-13640
▁compiled	-13641
▁musicians	-13642
igma	-13643
▁twist	-13644
UI	-13645
rien	-13646
▁18-	-13647
▁Ald	-13648
▁Sel	-13649
▁rib	-13650
▁Analy	-13651
▁paths	-13652
▁regards	-13653
▁accommodate	-13654
px	-13655
php	-13656
▁185	-13657
heimer	-13658
iliation	-13659
▁Wallace	-13660
ellar	-13661
izont	-13662
▁nominated	-13663
aws	-13664
▁MI	-13665
▁MO	-13666
bull	-13667
▁sail	-13668
▁3,000	-13669
oni	-13670
engu	-13671
than	-13672
▁cra	-13673
▁sensors	-13674
▁creators	-13675
▁lawsuits	-13676
▁wildlife	-13677
▁reflection	-13678
ITY	-13679
aux	-13680
▁Ltd	-13681
▁1992	-13682
▁Shah	-13683
▁glob	-13684
▁mobil	-13685
▁electro	-13686
▁gallery	-13687
▁neurons	-13688
▁Representatives	-13689
itis	-13690
▁cheer	-13691
closure	-13692
thereum	-13693
▁Member	-13694
▁Wonder	-13695
▁Denmark	-13696
▁Malaysia	-13697
▁literary	-13698
▁interactive	-13699
▁IRS	-13700
▁1993	-13701
▁Shield	-13702
▁sacred	-13703
▁Griffin	-13704
▁adaptation	-13705
▁afterwards	-13706
SC	-13707
wart	-13708
ulsion	-13709
▁Study	-13710
▁besides	-13711
▁forming	-13712
▁specialist	-13713
▁proceedings	-13714
▁hij	-13715
ittees	-13716
▁Hills	-13717
ullivan	-13718
cca	-13719
roots	-13720
▁hill	-13721
▁slip	-13722
▁worn	-13723
▁codes	-13724
▁Dublin	-13725
▁leagues	-13726
▁observe	-13727
▁independently	-13728
LY	-13729
tor	-13730
uum	-13731
▁Jesse	-13732
▁kingdom	-13733
▁consolid	-13734
wick	-13735
▁dism	-13736
▁Planned	-13737
▁carriers	-13738
▁terminal	-13739
iri	-13740
▁GB	-13741
▁pupp	-13742
▁Bulls	-13743
▁rubber	-13744
▁wooden	-13745
▁Iceland	-13746
▁Islands	-13747
▁triumph	-13748
▁adequate	-13749
▁reception	-13750
▁Kel	-13751
▁Lisa	-13752
▁User	-13753
▁tribal	-13754
▁matched	-13755
▁mounted	-13756
▁Breitbart	-13757
▁qualities	-13758
Ty	-13759
▁ye	-13760
keys	-13761
▁Incre	-13762
▁unfold	-13763
▁exagger	-13764
▁garbage	-13765
▁photography	-13766
ride	-13767
▁Lem	-13768
ioned	-13769
▁Viol	-13770
▁Zion	-13771
▁ports	-13772
▁query	-13773
▁rankings	-13774
▁Break	-13775
▁Woman	-13776
note	-13777
opard	-13778
▁lyrics	-13779
▁revised	-13780
▁Parenthood	-13781
▁exceptions	-13782
▁Mi	-13783
also	-13784
▁MLB	-13785
▁pub	-13786
▁Okay	-13787
▁Chand	-13788
▁Urban	-13789
▁metro	-13790
umbling	-13791
▁Orthodox	-13792
▁resignation	-13793
▁Git	-13794
▁Maj	-13795
▁Pun	-13796
▁nan	-13797
store	-13798
people	-13799
▁Close	-13800
▁shaped	-13801
▁Transportation	-13802
▁intu	-13803
wealth	-13804
▁amend	-13805
▁historian	-13806
▁observers	-13807
▁friendship	-13808
▁inevitably	-13809
▁Researchers	-13810
kees	-13811
rawl	-13812
Israel	-13813
See	-13814
.[6]	-13815
▁dirt	-13816
▁disk	-13817
▁abused	-13818
▁Homeland	-13819
CD	-13820
ра	-13821
20]	-13822
asi	-13823
▁veto	-13824
pelled	-13825
▁Bobby	-13826
▁yours	-13827
▁healing	-13828
▁demonstrations	-13829
▁heroin	-13830
▁loving	-13831
▁medication	-13832
▁inappropriate	-13833
cha	-13834
▁neat	-13835
rament	-13836
▁teens	-13837
▁dubbed	-13838
▁leather	-13839
▁Software	-13840
▁Operation	-13841
▁gods	-13842
issance	-13843
▁differ	-13844
▁purchasing	-13845
▁Too	-13846
▁twin	-13847
▁leaks	-13848
▁Pokémon	-13849
▁cycling	-13850
ppy	-13851
umm	-13852
aley	-13853
have	-13854
▁Mul	-13855
▁seiz	-13856
▁Jamie	-13857
▁alternate	-13858
▁assumptions	-13859
qual	-13860
▁Lost	-13861
▁vibr	-13862
▁divid	-13863
▁Comics	-13864
▁Certain	-13865
▁recalls	-13866
▁Qatar	-13867
▁wreck	-13868
▁UPDATE	-13869
▁powder	-13870
▁drought	-13871
▁republic	-13872
▁classical	-13873
97	-13874
▁raped	-13875
▁divers	-13876
▁severely	-13877
▁timeline	-13878
▁linebacker	-13879
pse	-13880
▁Pad	-13881
▁halt	-13882
▁riot	-13883
artisan	-13884
▁laboratory	-13885
ICK	-13886
▁Gas	-13887
▁Exam	-13888
▁shore	-13889
▁Spider	-13890
▁wherever	-13891
▁fundraising	-13892
inos	-13893
▁hem	-13894
neath	-13895
▁Hope	-13896
▁Mack	-13897
▁relating	-13898
▁ammunition	-13899
▁smartphones	-13900
▁Forum	-13901
▁lesser	-13902
▁Tribune	-13903
.[7	-13904
zech	-13905
acker	-13906
▁prest	-13907
▁clinic	-13908
▁insists	-13909
▁Regional	-13910
▁exercises	-13911
uru	-13912
gian	-13913
▁HTT	-13914
▁Merc	-13915
▁pipe	-13916
▁parade	-13917
▁prejud	-13918
▁searches	-13919
▁leaf	-13920
ocaust	-13921
ortions	-13922
ulative	-13923
▁Fourth	-13924
▁closure	-13925
controlled	-13926
▁privately	-13927
▁predictions	-13928
▁straightforward	-13929
dad	-13930
bean	-13931
ateur	-13932
ugged	-13933
▁Marl	-13934
itated	-13935
▁fuels	-13936
▁infamous	-13937
▁memorial	-13938
onion	-13939
rolling	-13940
▁namely	-13941
▁inmates	-13942
▁swimming	-13943
▁switching	-13944
blem	-13945
▁Fitz	-13946
agging	-13947
insula	-13948
▁Eight	-13949
▁eighth	-13950
▁Raiders	-13951
▁apology	-13952
▁crashed	-13953
▁celebrity	-13954
▁intercept	-13955
▁16-	-13956
▁hood	-13957
▁2002,	-13958
▁Blair	-13959
▁demon	-13960
▁Select	-13961
▁Tehran	-13962
▁origins	-13963
▁Portugal	-13964
▁doctrine	-13965
▁evolutionary	-13966
▁fundamentally	-13967
▁Ot	-13968
▁Own	-13969
render	-13970
▁sweat	-13971
▁Diamond	-13972
▁Systems	-13973
▁airline	-13974
▁outbreak	-13975
▁predomin	-13976
▁elaborate	-13977
umbl	-13978
inery	-13979
▁Rico	-13980
▁5,000	-13981
▁Object	-13982
▁Silicon	-13983
▁dioxide	-13984
▁attributes	-13985
15.	-13986
▁Aqu	-13987
▁meg	-13988
▁2003,	-13989
▁suits	-13990
▁statue	-13991
▁embassy	-13992
▁transcript	-13993
/5	-13994
▁TD	-13995
▁VA	-13996
▁plaint	-13997
▁territories	-13998
irk	-13999
van	-14000
▁lap	-14001
▁rede	-14002
▁toys	-14003
▁Apparently	-14004
▁entrepreneurs	-14005
ppo	-14006
▁Ib	-14007
Because	-14008
▁relies	-14009
national	-14010
▁arrives	-14011
▁labeled	-14012
▁sheriff	-14013
▁broadband	-14014
▁Dra	-14015
▁sie	-14016
▁Brun	-14017
▁Pere	-14018
▁trap	-14019
semble	-14020
▁successor	-14021
▁superhero	-14022
UG	-14023
но	-14024
▁reduces	-14025
▁mortality	-14026
▁billionaire	-14027
▁oh	-14028
four	-14029
puted	-14030
▁Give	-14031
▁dangers	-14032
▁practically	-14033
▁considerably	-14034
fly	-14035
▁cm	-14036
▁NDP	-14037
▁Armen	-14038
▁costly	-14039
▁marine	-14040
▁belongs	-14041
▁anonymity	-14042
▁detection	-14043
▁fame	-14044
▁Ubuntu	-14045
atherine	-14046
▁CT	-14047
ivic	-14048
▁Amy	-14049
ocide	-14050
▁Chen	-14051
▁Stay	-14052
▁Sunni	-14053
▁Julian	-14054
▁altered	-14055
represent	-14056
▁accompany	-14057
▁certificate	-14058
▁recommendation	-14059
var	-14060
▁Bald	-14061
▁grat	-14062
arette	-14063
▁folder	-14064
▁Episode	-14065
▁symbols	-14066
81	-14067
▁LG	-14068
▁Tar	-14069
▁meta	-14070
▁pound	-14071
▁autonomous	-14072
azed	-14073
iots	-14074
▁Gonz	-14075
▁rebell	-14076
▁strings	-14077
▁Politics	-14078
▁endorsed	-14079
▁Bed	-14080
bsite	-14081
oubted	-14082
etermin	-14083
▁exhibit	-14084
▁desperately	-14085
▁140	-14086
iosity	-14087
server	-14088
▁delays	-14089
▁Sources	-14090
▁listing	-14091
▁darkness	-14092
▁misleading	-14093
▁variations	-14094
▁NA	-14095
feld	-14096
▁obligation	-14097
str	-14098
anne	-14099
thirds	-14100
▁midst	-14101
▁switched	-14102
▁earthquake	-14103
▁exhibition	-14104
4-	-14105
his	-14106
airo	-14107
▁shapes	-14108
▁exceptional	-14109
▁arrangements	-14110
41	-14111
cill	-14112
▁Hud	-14113
▁pile	-14114
▁Truth	-14115
▁cache	-14116
▁cocaine	-14117
▁exhaust	-14118
▁locally	-14119
▁attribute	-14120
▁demonstrates	-14121
wer	-14122
▁1920	-14123
▁Mormon	-14124
▁convey	-14125
▁metres	-14126
▁Bennett	-14127
▁formerly	-14128
▁permanently	-14129
cker	-14130
▁Budget	-14131
▁temple	-14132
▁testified	-14133
▁consultant	-14134
▁Join	-14135
▁Lang	-14136
▁cargo	-14137
clusion	-14138
▁Bishop	-14139
▁locker	-14140
▁muscles	-14141
▁striker	-14142
▁problematic	-14143
ailand	-14144
missions	-14145
▁binding	-14146
▁teenage	-14147
▁thoroughly	-14148
ocker	-14149
▁unle	-14150
letter	-14151
▁chase	-14152
▁inhabit	-14153
▁loyalty	-14154
▁manages	-14155
▁proport	-14156
▁specified	-14157
▁supportive	-14158
disc	-14159
▁orb	-14160
oween	-14161
▁Buzz	-14162
▁Marcus	-14163
▁coastal	-14164
▁confusing	-14165
▁sovereignty	-14166
umns	-14167
▁quad	-14168
▁Someone	-14169
▁entries	-14170
▁renewed	-14171
▁analyses	-14172
rer	-14173
▁PAC	-14174
▁tube	-14175
▁Clean	-14176
▁Colon	-14177
▁trauma	-14178
▁deleted	-14179
▁legitim	-14180
▁stickers	-14181
▁algorithms	-14182
▁substantially	-14183
days	-14184
▁insur	-14185
selling	-14186
writing	-14187
▁barrels	-14188
▁objectives	-14189
Sm	-14190
▁Rou	-14191
▁Shi	-14192
oping	-14193
▁diagnosis	-14194
▁presidents	-14195
▁reasonably	-14196
olan	-14197
othy	-14198
▁Race	-14199
funded	-14200
▁dated	-14201
▁loses	-14202
▁locals	-14203
▁athlete	-14204
▁Richmond	-14205
▁declining	-14206
HD	-14207
aba	-14208
▁SA	-14209
▁Kate	-14210
▁flesh	-14211
▁Opt	-14212
▁cod	-14213
image	-14214
holder	-14215
▁affecting	-14216
▁frames	-14217
▁extending	-14218
▁TC	-14219
proof	-14220
▁Recently	-14221
▁maintains	-14222
!!!	-14223
▁HE	-14224
lett	-14225
degree	-14226
▁decks	-14227
▁maker	-14228
▁Observ	-14229
▁propri	-14230
▁denying	-14231
▁incoming	-14232
▁regulate	-14233
▁genuinely	-14234
▁accountability	-14235
enz	-14236
eches	-14237
marks	-14238
▁Kill	-14239
▁foul	-14240
omatic	-14241
▁Ident	-14242
▁solved	-14243
▁Agreement	-14244
▁bankruptcy	-14245
ML	-14246
Off	-14247
ulu	-14248
lies	-14249
viol	-14250
▁Abs	-14251
chair	-14252
ocaly	-14253
▁sink	-14254
▁wand	-14255
manuel	-14256
▁Learn	-14257
▁spill	-14258
▁Linked	-14259
▁Palace	-14260
▁relate	-14261
▁Introdu	-14262
VA	-14263
enc	-14264
lem	-14265
ovic	-14266
▁Auto	-14267
runner	-14268
▁Vikings	-14269
▁sponsor	-14270
▁delicious	-14271
▁Got	-14272
ository	-14273
▁Germans	-14274
▁chemistry	-14275
▁Cu	-14276
nesty	-14277
▁Nathan	-14278
▁discon	-14279
▁functioning	-14280
▁effectiveness	-14281
cup	-14282
▁Ax	-14283
▁luc	-14284
▁1940	-14285
▁Stra	-14286
▁juice	-14287
▁charts	-14288
▁Edwards	-14289
▁evaluation	-14290
92	-14291
10.	-14292
▁(+	-14293
opes	-14294
▁Agr	-14295
▁Cart	-14296
▁Crow	-14297
osures	-14298
▁Rachel	-14299
▁adverse	-14300
▁sounded	-14301
▁overhaul	-14302
▁playback	-14303
▁Ultimately	-14304
▁esp	-14305
▁Cape	-14306
▁Mans	-14307
▁pants	-14308
agonist	-14309
▁intend	-14310
▁Panthers	-14311
▁neutrality	-14312
▁Gand	-14313
▁Joel	-14314
▁Palin	-14315
▁lacks	-14316
▁advers	-14317
▁forums	-14318
▁divisions	-14319
▁credential	-14320
Mr	-14321
▁68	-14322
idges	-14323
▁Elsa	-14324
▁proc	-14325
▁Village	-14326
▁hardest	-14327
▁adjusted	-14328
▁Daw	-14329
▁rings	-14330
▁flowers	-14331
▁arranged	-14332
▁imagined	-14333
▁Additional	-14334
)|	-14335
uki	-14336
anto	-14337
apor	-14338
▁Poly	-14339
▁Laura	-14340
▁artic	-14341
▁portfolio	-14342
▁protective	-14343
hew	-14344
pit	-14345
▁AG	-14346
ripp	-14347
ospel	-14348
raham	-14349
▁rage	-14350
▁ware	-14351
▁doubts	-14352
▁facilitate	-14353
▁celebrating	-14354
▁obligations	-14355
▁wrap	-14356
▁Czech	-14357
▁pseud	-14358
▁swift	-14359
▁Hockey	-14360
▁licenses	-14361
rov	-14362
▁vet	-14363
▁Koch	-14364
ulator	-14365
▁Visit	-14366
▁Legend	-14367
▁extends	-14368
▁limiting	-14369
▁skull	-14370
▁killings	-14371
▁cancelled	-14372
kh	-14373
lli	-14374
iology	-14375
forming	-14376
▁Tigers	-14377
▁fortun	-14378
usterity	-14379
▁schemes	-14380
▁premiere	-14381
▁libertarian	-14382
bad	-14383
▁BB	-14384
▁hyd	-14385
▁Index	-14386
▁resur	-14387
▁kernel	-14388
▁elevated	-14389
▁classroom	-14390
ido	-14391
▁Mode	-14392
▁pale	-14393
lation	-14394
▁Greens	-14395
▁vessel	-14396
▁fulfill	-14397
▁briefing	-14398
▁liability	-14399
▁governance	-14400
▁publications	-14401
18]	-14402
▁Shel	-14403
▁mate	-14404
▁fines	-14405
▁cancel	-14406
▁generic	-14407
▁antibiot	-14408
▁restored	-14409
▁convincing	-14410
/7	-14411
airy	-14412
aneous	-14413
▁garage	-14414
▁negotiating	-14415
▁1991	-14416
▁Fran	-14417
▁Titan	-14418
▁blown	-14419
▁Luther	-14420
▁Soccer	-14421
▁archae	-14422
▁hungry	-14423
oubtedly	-14424
▁Assange	-14425
El	-14426
▁1-	-14427
▁23.	-14428
▁shy	-14429
▁Kath	-14430
▁aide	-14431
working	-14432
▁genius	-14433
▁grocery	-14434
▁unlimited	-14435
▁spectacular	-14436
▁SL	-14437
▁une	-14438
uting	-14439
▁heter	-14440
▁Applic	-14441
▁stroke	-14442
oriented	-14443
ften	-14444
▁Zen	-14445
▁quo	-14446
names	-14447
▁Dere	-14448
▁Help	-14449
▁filmed	-14450
▁twelve	-14451
▁Barbara	-14452
▁Rodgers	-14453
gregation	-14454
▁processed	-14455
▁organizers	-14456
▁63	-14457
hole	-14458
▁Neg	-14459
icers	-14460
ickets	-14461
▁nodes	-14462
▁dominate	-14463
▁enthusiasm	-14464
▁withdrawal	-14465
▁),	-14466
bling	-14467
▁Pros	-14468
azines	-14469
▁2018.	-14470
▁Holmes	-14471
▁freshman	-14472
▁stealing	-14473
▁tolerance	-14474
▁Scientists	-14475
▁theoretical	-14476
MB	-14477
UE	-14478
ARD	-14479
▁__	-14480
▁spite	-14481
▁pitcher	-14482
▁shipped	-14483
то	-14484
fam	-14485
edge	-14486
▁Rush	-14487
▁leap	-14488
▁referen	-14489
▁inability	-14490
je	-14491
avid	-14492
▁Bird	-14493
▁newer	-14494
▁cooling	-14495
▁obesity	-14496
▁consistency	-14497
▁76	-14498
abad	-14499
▁Wade	-14500
▁Flight	-14501
▁hunger	-14502
▁Kremlin	-14503
▁lasting	-14504
▁Heritage	-14505
▁sporting	-14506
▁legislators	-14507
▁DI	-14508
ulum	-14509
wear	-14510
ieval	-14511
▁Trav	-14512
▁gard	-14513
▁ster	-14514
▁stays	-14515
olutely	-14516
▁occurring	-14517
▁electronics	-14518
kens	-14519
▁finals	-14520
▁malware	-14521
▁Harrison	-14522
▁mentions	-14523
▁outlined	-14524
▁behaviors	-14525
FI	-14526
▁REL	-14527
▁Thailand	-14528
▁wip	-14529
▁Drag	-14530
▁Grey	-14531
▁cute	-14532
▁fiber	-14533
▁glory	-14534
▁ordin	-14535
▁Collect	-14536
▁vegetables	-14537
IDS	-14538
▁[2	-14539
team	-14540
pring	-14541
space	-14542
▁cares	-14543
▁tuned	-14544
▁Chamber	-14545
▁lighter	-14546
▁streams	-14547
▁tackles	-14548
Us	-14549
▁MVP	-14550
▁dive	-14551
retion	-14552
▁aster	-14553
▁aboard	-14554
▁honour	-14555
▁insure	-14556
▁Montana	-14557
▁stepping	-14558
▁determining	-14559
▁expressions	-14560
ushing	-14561
▁scram	-14562
▁neural	-14563
▁tribute	-14564
▁shutdown	-14565
▁measuring	-14566
▁prescription	-14567
oos	-14568
ango	-14569
▁160	-14570
▁Cav	-14571
▁USS	-14572
▁Wor	-14573
accur	-14574
▁Cant	-14575
▁File	-14576
▁artif	-14577
▁Officials	-14578
▁disclosed	-14579
?!	-14580
Spe	-14581
▁iT	-14582
▁von	-14583
▁newest	-14584
▁pistol	-14585
official	-14586
▁signatures	-14587
:10	-14588
lib	-14589
vet	-14590
▁Pret	-14591
▁sanct	-14592
▁sketch	-14593
▁sisters	-14594
▁Argentina	-14595
▁skeptical	-14596
▁Late	-14597
▁Garcia	-14598
▁organize	-14599
▁Ru	-14600
▁Nag	-14601
▁Browns	-14602
▁plates	-14603
▁summon	-14604
▁mobility	-14605
▁manufactured	-14606
▁Tru	-14607
▁cab	-14608
▁Horn	-14609
▁mosque	-14610
▁dealers	-14611
▁casualties	-14612
ни	-14613
▁62	-14614
▁vib	-14615
▁jack	-14616
INGTON	-14617
▁acute	-14618
▁surveys	-14619
▁baseline	-14620
▁underneath	-14621
▁Minor	-14622
▁risen	-14623
▁vigil	-14624
▁bloody	-14625
▁united	-14626
▁Invalid	-14627
▁Picture	-14628
▁dignity	-14629
▁Baseball	-14630
iga	-14631
▁01	-14632
▁lined	-14633
▁influences	-14634
▁accidentally	-14635
▁CBC	-14636
▁McD	-14637
▁sells	-14638
mingham	-14639
▁artwork	-14640
▁twitter	-14641
▁villain	-14642
▁strictly	-14643
▁apologize	-14644
▁teenagers	-14645
BR	-14646
.[8]	-14647
ambers	-14648
▁airpl	-14649
▁depri	-14650
▁toilet	-14651
▁bullets	-14652
▁Phillips	-14653
▁Continued	-14654
▁Palestine	-14655
aky	-14656
abel	-14657
ashi	-14658
plant	-14659
▁GOOD	-14660
iances	-14661
▁Hughes	-14662
▁mature	-14663
▁pockets	-14664
▁hearings	-14665
▁unacceptable	-14666
▁Fan	-14667
▁RAM	-14668
ithub	-14669
▁Jong	-14670
urring	-14671
▁fancy	-14672
respons	-14673
▁Boeing	-14674
▁kicking	-14675
▁mistaken	-14676
▁rendering	-14677
▁voluntary	-14678
▁measurements	-14679
eps	-14680
omo	-14681
uns	-14682
▁3)	-14683
▁Ele	-14684
▁cher	-14685
▁cure	-14686
▁grey	-14687
▁laug	-14688
▁plea	-14689
▁dispens	-14690
▁tourism	-14691
▁characterized	-14692
19]	-14693
▁turb	-14694
▁guilt	-14695
▁Really	-14696
▁feather	-14697
▁insights	-14698
▁OP	-14699
rone	-14700
▁Math	-14701
▁Surv	-14702
▁Planet	-14703
▁felony	-14704
▁Austria	-14705
▁vessels	-14706
▁analyzed	-14707
▁offenders	-14708
▁Lot	-14709
▁piv	-14710
▁Mall	-14711
closed	-14712
▁Animal	-14713
▁Throughout	-14714
iang	-14715
▁incumb	-14716
▁consume	-14717
▁spirits	-14718
▁listened	-14719
▁sponsors	-14720
BER	-14721
hum	-14722
▁SO	-14723
▁od	-14724
aires	-14725
▁Snap	-14726
▁confronted	-14727
▁achievements	-14728
Red	-14729
ulk	-14730
▁ME	-14731
arcer	-14732
▁nort	-14733
▁upside	-14734
▁contractors	-14735
▁Om	-14736
▁130	-14737
▁Bagh	-14738
intage	-14739
▁Going	-14740
▁modes	-14741
ausible	-14742
▁laughed	-14743
▁useless	-14744
▁Actually	-14745
▁Ethereum	-14746
▁deterior	-14747
▁reviewing	-14748
Qaeda	-14749
lickr	-14750
▁Globe	-14751
▁intens	-14752
▁lately	-14753
aters	-14754
▁sect	-14755
▁retrie	-14756
▁bipartisan	-14757
▁misconduct	-14758
▁Performance	-14759
hner	-14760
true	-14761
▁Gam	-14762
▁MIT	-14763
▁nod	-14764
▁debris	-14765
▁assembled	-14766
▁spotlight	-14767
▁Pil	-14768
▁USD	-14769
▁dot	-14770
▁Days	-14771
▁Shaw	-14772
▁eleg	-14773
▁Butler	-14774
▁biology	-14775
▁concess	-14776
▁relying	-14777
▁#2	-14778
ierra	-14779
▁Joint	-14780
Pr	-14781
▁IG	-14782
ayer	-14783
▁Mes	-14784
▁Zero	-14785
▁melt	-14786
▁Content	-14787
▁adapted	-14788
▁empower	-14789
▁separately	-14790
▁Erd	-14791
▁hash	-14792
▁spat	-14793
▁rental	-14794
▁spells	-14795
▁passive	-14796
▁Together	-14797
▁bureaucrat	-14798
UP	-14799
▁VM	-14800
Gener	-14801
▁Winn	-14802
▁cousin	-14803
▁midnight	-14804
▁militant	-14805
12.	-14806
▁Pink	-14807
ranean	-14808
▁Colin	-14809
▁donate	-14810
▁Protest	-14811
▁artistic	-14812
▁Cardinals	-14813
▁Hopefully	-14814
▁achieving	-14815
▁05	-14816
▁Ana	-14817
▁hind	-14818
headed	-14819
▁refusal	-14820
▁Imperial	-14821
▁treasure	-14822
nex	-14823
yang	-14824
▁nit	-14825
▁fart	-14826
▁Armed	-14827
▁medal	-14828
▁Foster	-14829
▁relied	-14830
uda	-14831
▁snap	-14832
▁Sandy	-14833
▁puzzle	-14834
▁unanim	-14835
▁clarity	-14836
▁vendors	-14837
▁volumes	-14838
▁committing	-14839
▁cryptocurrency	-14840
oute	-14841
▁Castle	-14842
▁Samuel	-14843
▁wounds	-14844
▁Process	-14845
▁defining	-14846
Are	-14847
▁25.	-14848
▁disclose	-14849
▁salaries	-14850
▁syndrome	-14851
OME	-14852
ORT	-14853
mos	-14854
...]	-14855
▁horses	-14856
▁Brothers	-14857
▁Starting	-14858
▁Hurricane	-14859
▁expectation	-14860
><	-14861
zi	-14862
gel	-14863
▁Wa	-14864
rying	-14865
▁coat	-14866
▁indef	-14867
▁offshore	-14868
▁preseason	-14869
71	-14870
ulin	-14871
▁admin	-14872
▁victories	-14873
▁attraction	-14874
sis	-14875
email	-14876
▁Deal	-14877
▁impe	-14878
▁dense	-14879
borough	-14880
▁frankly	-14881
▁varying	-14882
▁catching	-14883
▁sexuality	-14884
▁08	-14885
▁Sem	-14886
First	-14887
▁Mine	-14888
▁Zone	-14889
▁bearing	-14890
▁Broadway	-14891
▁associations	-14892
▁Few	-14893
▁Batt	-14894
▁fond	-14895
▁Match	-14896
▁flows	-14897
▁tricks	-14898
▁Martine	-14899
▁inflamm	-14900
▁violate	-14901
▁Halloween	-14902
▁physician	-14903
far	-14904
osi	-14905
produ	-14906
▁Edge	-14907
▁Create	-14908
▁tactical	-14909
▁subscribers	-14910
Ke	-14911
exp	-14912
ogg	-14913
▁Arn	-14914
▁Fame	-14915
▁Wing	-14916
▁reiter	-14917
▁Release	-14918
▁magazines	-14919
▁SF	-14920
▁Rud	-14921
rones	-14922
▁stark	-14923
▁columns	-14924
▁murders	-14925
▁premier	-14926
▁financially	-14927
▁preferences	-14928
▁Ide	-14929
▁rou	-14930
▁rats	-14931
Muslim	-14932
▁varied	-14933
▁Counter	-14934
▁incomes	-14935
NY	-14936
▁Scholar	-14937
▁encrypt	-14938
▁surpass	-14939
▁monument	-14940
93	-14941
img	-14942
▁PT	-14943
▁30.	-14944
▁maneu	-14945
▁naval	-14946
▁Zimmer	-14947
▁redist	-14948
ublished	-14949
▁misunder	-14950
▁sticking	-14951
▁troubles	-14952
▁invisible	-14953
▁Originally	-14954
His	-14955
omi	-14956
inho	-14957
uity	-14958
▁gly	-14959
▁Beast	-14960
▁boats	-14961
▁defic	-14962
▁corrid	-14963
▁credited	-14964
_{	-14965
onge	-14966
▁Kor	-14967
outed	-14968
▁quarters	-14969
▁jurisdiction	-14970
Des	-14971
▁ende	-14972
▁tier	-14973
script	-14974
▁Duncan	-14975
▁dancing	-14976
▁descend	-14977
▁glasses	-14978
▁Nashville	-14979
▁Regardless	-14980
án	-14981
▁40%	-14982
▁Raw	-14983
▁aliens	-14984
▁prayers	-14985
ufficient	-14986
▁Mohammed	-14987
▁unsuccess	-14988
▁assassination	-14989
”—	-14990
Most	-14991
mile	-14992
▁pup	-14993
▁Nancy	-14994
▁lovely	-14995
▁theaters	-14996
▁Birmingham	-14997
▁distinguish	-14998
▁philosophical	-14999
▁cu	-15000
▁unre	-15001
▁Legal	-15002
▁donor	-15003
▁Bannon	-15004
▁Training	-15005
▁settlements	-15006
constitutional	-15007
▁disproportion	-15008
▁las	-15009
agged	-15010
▁brick	-15011
▁Machine	-15012
▁firearm	-15013
▁persist	-15014
▁gi	-15015
▁seam	-15016
▁Ahmed	-15017
▁implies	-15018
▁Indianapolis	-15019
▁exploitation	-15020
▁88	-15021
▁AV	-15022
show	-15023
▁Kos	-15024
▁haul	-15025
▁Whats	-15026
▁macro	-15027
▁nurse	-15028
▁complement	-15029
▁pronounced	-15030
▁businessman	-15031
▁Lan	-15032
green	-15033
▁submar	-15034
▁tribes	-15035
▁Classic	-15036
▁partisan	-15037
More	-15038
itle	-15039
sche	-15040
▁wash	-15041
▁automated	-15042
▁nightmare	-15043
▁disability	-15044
bat	-15045
▁"[	-15046
▁aqu	-15047
pound	-15048
▁charter	-15049
▁Rodriguez	-15050
▁marketplace	-15051
▁subscribing	-15052
oust	-15053
▁30%	-15054
adequ	-15055
▁1989	-15056
▁Fish	-15057
▁mall	-15058
atican	-15059
riages	-15060
▁Bangl	-15061
▁rolls	-15062
▁Arabic	-15063
▁alumin	-15064
▁banner	-15065
culation	-15066
▁obstacles	-15067
▁revelation	-15068
bled	-15069
▁Jav	-15070
aired	-15071
▁kicks	-15072
▁renov	-15073
entions	-15074
ramento	-15075
▁binary	-15076
▁fisher	-15077
▁spends	-15078
▁tongue	-15079
▁bicycle	-15080
terrorism	-15081
▁Commerce	-15082
▁shortage	-15083
▁sometime	-15084
▁GA	-15085
unks	-15086
▁Fly	-15087
amation	-15088
respect	-15089
▁Aleppo	-15090
▁Weather	-15091
▁oversee	-15092
▁110	-15093
▁gau	-15094
[...]
